[PAD]
[UNK]
[CLS]
[SEP]
[MASK]
!
"
#
$
%
&
'
(
)
*
+
,
-
.
/
0
1
2
3
4
5
6
7
8
9
:
;
<
=
>
?
@
A
B
C
D
E
F
G
H
I
J
K
L
M
N
O
P
Q
R
S
T
U
V
W
X
Y
Z
[
\
]
^
_
`
a
b
c
d
e
f
g
h
i
j
k
l
m
n
o
p
q
r
s
t
u
v
w
x
y
z
{
|
}
~
£
¥
§
«
®
°
±
²
³
´
¶
·
¹
º
»
½
¿
Á
É
Ö
×
Ø
Ú
Ü
ß
à
á
â
ã
ä
å
æ
ç
è
é
ê
ë
ì
í
î
ï
ð
ñ
ò
ó
ô
ö
÷
ø
ù
ú
ü
ā
ă
ć
č
Đ
ē
ě
ğ
ī
ı
ł
ŋ
Ō
ō
ŏ
ś
ş
š
ū
ư
ǎ
ǐ
ǒ
ǔ
ə
ɛ
ɪ
ɴ
ʃ
ʔ
ʕ
ʟ
ʰ
˂
˃
ˈ
ː
˘
˙
˚
˝
̀
́
̄
̆
̈
̊
̎
̑
̣
̥
̩
̫
̴
̵
̶
̷
͈
͡
΄
Α
Δ
Κ
Λ
Π
Σ
Φ
Ω
ά
έ
ή
ί
α
β
γ
δ
ε
η
θ
ι
κ
λ
μ
ν
ο
π
ρ
ς
σ
τ
υ
φ
χ
ω
ό
ύ
А
Б
В
Г
Д
Е
З
И
К
Л
М
Н
О
П
Р
С
Т
У
Ф
Х
Ч
Э
Я
а
б
в
г
д
е
ж
з
и
й
к
л
м
н
о
п
р
с
т
у
ф
х
ц
ч
ш
щ
ъ
ы
ь
э
ю
я
ё
і
ա
א
ה
ו
י
ל
ר
ا
ب
ة
ت
ج
ح
د
ر
س
ش
ع
ف
ق
ك
ل
م
ن
ه
و
ي
َ
٩
ی
र
ा
्
ෆ
ก
ง
น
ม
ร
อ
ั
า
ิ
เ
็
้
๑
་
ღ
ᄀ
ᄂ
ᄃ
ᄅ
ᄆ
ᄇ
ᄉ
ᄋ
ᄌ
ᄏ
ᄒ
ᄯ
ᅀ
ᅡ
ᅥ
ᅩ
ᅳ
ᅵ
ᆞ
ᆡ
ᆨ
ᆫ
ᆯ
ᆷ
ᆺ
ᆼ
ᇰ
ᠠ
ᡝ
ᡳ
ᴀ
ᴇ
ᴏ
ᴗ
ᴛ
ᴬ
ᴱ
ᴼ
‐
–
—
―
‘
’
“
”
†
•
․
‥
…
‧
′
″
※
‼
⁴
₁
₂
₃
₩
€
⃣
℃
ℓ
™
⅓
⅔
Ⅰ
Ⅱ
Ⅲ
Ⅳ
Ⅴ
Ⅵ
Ⅶ
Ⅷ
Ⅸ
Ⅹ
ⅰ
ⅱ
ⅲ
ⅳ
←
↑
→
↓
↔
↕
↖
↗
↘
↙
⇒
∀
∑
−
∘
∙
√
∞
∠
∥
∧
∨
∴
∷
∼
≒
≠
≡
≤
≥
≪
≫
⊙
⋅
⋮
⋯
①
②
③
④
⑤
⑥
⑦
⑧
⑨
⑩
⑪
⑫
⑬
⑭
⑮
⑲
⑴
⑵
⑶
⑷
⑸
⑹
⒜
⒝
⒞
Ⓐ
ⓐ
ⓑ
ⓒ
ⓓ
ⓔ
ⓗ
─
━
│
┃
┌
└
┗
├
┬
┼
█
░
▒
■
□
▣
▨
▩
▪
▫
▲
△
▶
▷
▸
▼
▽
◀
◁
◆
◇
◈
◉
○
◎
●
◐
◑
◡
◦
◯
◾
☀
☁
★
☆
☎
☏
☑
☔
☕
☜
☝
☞
☺
♀
♂
♠
♡
♣
♤
♥
♦
♧
♨
♩
♪
♬
♭
♯
✅
✈
✌
✓
✔
✚
✧
✨
✴
✽
✿
❄
❗
❛
❣
❤
❶
❷
❸
❹
➊
➋
➌
➍
➜
➡
➰
⠀
⠄
⫬
⭐
、
。
〃
々
〇
〈
〉
《
》
「
」
『
』
【
】
〓
〔
〕
〜
〰
ぁ
あ
ぃ
い
ぅ
う
ぇ
え
ぉ
お
か
が
き
ぎ
く
ぐ
け
げ
こ
ご
さ
ざ
し
じ
す
ず
せ
ぜ
そ
ぞ
た
だ
ち
っ
つ
づ
て
で
と
ど
な
に
ぬ
ね
の
は
ば
ぱ
ひ
び
ぴ
ふ
ぶ
ぷ
へ
べ
ぺ
ほ
ぼ
ぽ
ま
み
む
め
も
ゃ
や
ゅ
ゆ
ょ
よ
ら
り
る
れ
ろ
わ
を
ん
ァ
ア
ィ
イ
ゥ
ウ
ェ
エ
ォ
オ
カ
ガ
キ
ギ
ク
グ
ケ
ゲ
コ
ゴ
サ
ザ
シ
ジ
ス
ズ
セ
ゼ
ソ
ゾ
タ
ダ
チ
ッ
ツ
テ
デ
ト
ド
ナ
ニ
ヌ
ネ
ノ
ハ
バ
パ
ヒ
ビ
ピ
フ
ブ
プ
ヘ
ベ
ペ
ホ
ボ
ポ
マ
ミ
ム
メ
モ
ャ
ヤ
ュ
ユ
ョ
ヨ
ラ
リ
ル
レ
ロ
ワ
ヲ
ン
ヴ
ヶ
・
ー
ㄱ
ㄲ
ㄳ
ㄴ
ㄷ
ㄸ
ㄹ
ㅁ
ㅂ
ㅃ
ㅄ
ㅅ
ㅆ
ㅇ
ㅈ
ㅉ
ㅊ
ㅋ
ㅌ
ㅍ
ㅎ
ㅏ
ㅐ
ㅑ
ㅒ
ㅓ
ㅔ
ㅕ
ㅖ
ㅗ
ㅘ
ㅙ
ㅚ
ㅛ
ㅜ
ㅝ
ㅞ
ㅟ
ㅠ
ㅡ
ㅢ
ㅣ
ㅤ
ㆍ
㈎
㈏
㈐
㈑
㈒
㈔
㈜
㉠
㉡
㉢
㉣
㉤
㉥
㉮
㉯
㉰
㉱
㎉
㎍
㎎
㎏
㎐
㎒
㎓
㎖
㎗
㎘
㎚
㎛
㎜
㎝
㎞
㎟
㎠
㎡
㎢
㎥
㎸
㎾
㎿
㏃
㏄
㏈
㏊
一
丁
七
万
丈
三
上
下
不
与
丑
且
世
丘
丙
东
丞
両
並
个
中
丸
丹
为
主
乃
久
么
之
乎
乐
乗
乘
乙
九
乞
也
乱
乳
乾
亀
亂
了
予
争
事
二
于
云
互
五
井
些
亜
亞
亡
交
亥
亦
亨
享
京
亭
亮
人
什
仁
仇
今
介
仍
仏
仕
他
付
仙
代
令
以
们
仮
仰
仲
件
任
企
伊
伍
伏
伐
休
会
伝
伯
伴
伸
似
伽
但
位
低
住
佐
佑
体
何
余
佛
作
你
佳
使
來
例
侍
供
依
侯
侵
便
係
促
俄
俊
俗
保
俠
信
修
俱
俳
俺
倂
倉
個
倍
們
倒
候
借
倡
値
倫
倭
假
偉
偏
做
停
健
側
偵
偶
傅
傍
傑
傘
備
催
傭
傳
債
傷
傾
僉
像
僕
僚
僞
僧
價
儀
億
儉
儒
償
優
儿
允
元
兄
充
兆
先
光
克
兌
免
兎
児
兒
入
內
全
兩
兪
八
公
六
兮
共
兵
其
具
典
兼
冀
内
円
冊
再
冒
写
冠
冥
冬
冶
冷
准
凉
凍
凛
凝
凡
処
凰
凱
凶
凸
出
击
函
刀
刃
分
切
刊
刑
列
初
判
別
利
别
到
制
刷
券
刹
刺
刻
則
削
剋
前
剛
剣
副
割
創
劃
劇
劉
劍
劑
力
功
加
动
助
努
劫
勃
勅
勇
勉
勒
動
勘
務
勝
勞
募
勢
勤
勳
勸
勿
包
化
北
匠
匡
匪
匹
区
医
區
十
千
升
午
半
卍
华
卑
卒
卓
協
南
単
博
卜
卞
占
卦
卯
印
危
却
卵
卷
卽
卿
厄
厚
原
厥
厭
去
参
參
又
叉
及
友
双
反
发
叔
取
受
叛
叢
口
古
句
叩
只
叫
召
可
台
叱
史
右
叶
号
司
吃
各
合
吉
同
名
后
吏
吐
向
吗
君
吟
否
吧
含
吳
吸
吹
吾
呂
呈
告
呑
呢
周
呪
味
呼
命
和
咲
咸
哀
品
哈
哉
員
哥
哦
哭
哲
唄
唆
唐
唯
唱
商
啊
問
啓
善
喆
喚
喜
喝
喩
喪
喬
單
嗚
嗣
嘆
嘉
嘗
嘘
器
嚴
囊
囚
四
回
因
団
困
図
固
国
圃
圈
國
圍
園
圓
圖
團
土
在
圭
地
场
址
坂
均
坊
坐
坑
坡
坤
坪
垂
型
垣
埋
城
域
執
培
基
埼
堀
堂
堅
堡
堤
堪
堯
報
場
塊
塔
塗
塘
塚
塞
塩
塵
塾
境
墓
増
增
墨
墳
壁
壇
壊
壓
壞
壤
士
壬
壯
声
売
壹
壺
壽
変
夏
夕
外
多
夜
夢
大
天
太
夫
央
失
夷
奇
奈
奉
奎
奏
契
奔
奚
奠
奥
奧
奪
奭
奮
女
奴
奸
好
如
妃
妄
妓
妖
妙
妨
妹
妻
妾
姉
始
姐
姑
姓
委
姚
姜
姦
姫
姬
姻
姿
威
娘
娥
婁
婆
婚
婢
婦
媒
媛
嫁
嫌
嫡
嬉
嬪
子
孔
字
存
孝
孟
季
孤
学
孩
孫
孰
學
宅
宇
守
安
宋
完
宏
宗
官
宙
定
宛
宜
宝
実
客
宣
室
宦
宮
宰
害
宴
宵
家
容
宿
寂
寃
寄
寅
密
寇
富
寒
寓
寛
寝
察
寡
寢
實
寧
審
寫
寬
寵
寶
寸
对
寺
対
寿
封
射
将
將
專
尉
尊
尋
對
導
小
少
尔
尖
尙
尚
尤
就
尸
尹
尺
尼
尽
尾
局
居
屈
届
屋
屍
展
屛
屠
層
履
屬
屯
山
岐
岡
岩
岳
岸
峙
峨
峯
峰
峴
島
峻
峽
崇
崎
崔
崖
崩
嵐
嶋
嶺
嶽
巖
川
州
巡
巢
工
左
巧
巨
巫
差
己
已
巳
巴
巷
巻
巾
市
布
帆
希
帖
帛
帝
帥
師
席
帯
帰
帳
帶
常
帽
幅
幇
幌
幕
幡
幢
幣
干
平
年
幷
幸
幹
幻
幼
幽
幾
广
広
庄
床
序
底
店
庚
府
度
座
庫
庭
庵
庶
康
庸
庾
廉
廊
廛
廟
廢
廣
廬
廳
延
廷
建
廻
廿
开
弁
弊
式
弓
弔
引
弗
弘
弟
张
弥
弦
弩
弱
張
強
强
弼
弾
彈
彌
当
彙
形
彦
彩
彫
彬
彭
彰
影
役
彼
往
征
待
很
律
後
徐
徑
徒
得
從
御
復
循
微
徳
徵
德
徹
徽
心
必
忌
忍
志
忘
忙
応
忠
快
念
忽
怒
怖
思
怠
怡
急
性
怨
怪
恋
恐
恒
恕
恣
恤
恥
恨
恩
恭
息
恵
悅
悉
悌
悔
悟
悠
患
您
悩
悪
悲
悼
情
惑
惜
惟
惠
惡
惱
想
惺
愁
愈
愍
意
愚
愛
感
愼
慈
態
慎
慕
慘
慢
慣
慧
慮
慰
慶
慾
憂
憎
憐
憑
憤
憧
憲
憶
應
懲
懷
懸
懼
懿
戀
戈
戊
戌
戎
成
我
戒
或
战
戚
戦
戯
戰
戱
戴
戶
戸
戻
房
所
扇
扉
手
才
打
托
扮
扶
批
承
技
抄
把
抑
投
抗
折
抜
抱
抵
抹
押
抽
拂
拉
拍
拒
拓
拔
拘
拙
招
拜
括
拳
拾
持
指
按
挑
挥
振
捕
捧
捨
捷
捺
掃
授
掌
排
掘
掛
採
探
接
控
推
措
描
提
揚
換
握
揭
揮
援
揺
損
搖
搜
摘
摠
摩
撃
撤
撫
播
撮
撰
擇
擊
操
擔
據
擧
擬
擴
攝
支
收
改
攻
放
政
故
效
敍
敎
敏
救
敗
教
敢
散
敦
敬
数
整
敵
敷
數
斂
文
斉
斎
斐
斗
料
斜
斤
斥
斧
斬
断
斯
新
斷
方
於
施
旅
旋
旌
族
旗
无
旣
日
旦
旧
旨
早
旬
旭
时
旺
昆
昇
昊
昌
明
昏
易
昔
星
映
春
昧
昨
昭
是
昼
時
晃
晉
晋
晏
晝
晦
晨
晩
普
景
晴
晶
智
暁
暇
暑
暖
暗
暮
暴
曆
曇
曉
曜
曰
曲
更
書
曹
曺
曼
曾
替
最
會
月
有
朋
服
朔
朗
望
朝
期
木
未
末
本
札
朱
朴
机
杉
李
杏
材
村
杖
杜
杞
束
条
来
杭
杯
杰
東
松
板
析
枕
林
枚
果
枝
枯
架
柄
柏
某
染
柔
柱
柳
柴
査
栄
栗
校
栢
株
样
核
根
格
桀
桂
桃
案
桐
桑
桓
桜
梁
梅
條
梦
梧
梨
械
梵
棄
棋
棒
棟
森
棲
棺
植
椎
椿
楊
楓
楚
業
極
楼
楽
榜
榮
槃
構
槍
槐
様
槪
樂
樊
樓
標
樞
模
樣
権
横
樹
橋
橘
機
橫
檀
檢
櫻
權
欠
次
欣
欲
欺
欽
款
歌
歎
歐
歡
止
正
此
步
武
歩
歲
歳
歷
歸
死
殆
殉
殊
残
殖
殘
段
殷
殺
殿
毁
毅
毋
母
毎
每
毒
比
毘
毛
毫
氏
民
气
気
氣
水
氷
永
求
汎
汗
汚
汝
江
池
汪
決
汽
沃
沈
沌
沒
沖
沙
没
沢
沫
河
油
治
沼
沿
況
泉
泊
法
泗
泡
波
泣
泥
注
泰
泳
洋
洑
洗
洙
洛
洞
津
洪
洲
活
派
流
浅
浙
浚
浜
浦
浩
浪
浮
浴
海
涅
消
涉
涙
涯
液
涵
涼
淑
淚
淡
淨
淫
淮
深
淳
淵
混
淸
淺
添
清
渚
減
渠
渡
渤
温
測
渭
港
渴
游
渾
湖
湘
湛
湯
満
源
準
溝
溟
溢
溪
溫
溶
滄
滅
滉
滋
滑
滝
滯
滴
滿
漁
漂
漆
漏
演
漠
漢
漫
漸
潔
潘
潛
潜
潟
潤
潭
潮
澄
澈
澤
激
濁
濃
濕
濟
濡
濤
濬
濱
瀋
瀬
灌
灘
灣
火
灯
灰
灼
災
炎
炭
炯
炳
点
為
烈
烏
烟
烹
烽
焉
焚
無
焦
然
焼
煌
煎
煙
煥
照
煩
熊
熙
熟
熱
熹
燁
燃
燈
燒
燕
營
燦
燭
燮
爆
爐
爪
爭
爱
爲
爵
父
爻
爽
爾
片
版
牌
牙
牛
牟
牧
物
牲
特
牽
犬
犯
状
狀
狂
狄
狐
狗
狙
狩
独
狹
狼
猛
猪
猫
猶
猿
獄
獅
獣
獨
獲
獸
獻
玄
玆
率
玉
王
玩
现
玲
珍
珠
珥
珪
班
現
球
理
琉
琴
瑕
瑜
瑞
瑟
瑠
璃
璋
璧
環
瓜
瓦
甁
甄
甘
甚
生
産
用
甫
田
由
甲
申
男
町
画
界
畏
畑
留
畜
畢
略
番
異
畵
當
畿
疆
疎
疏
疑
疫
疲
疵
疾
病
症
痕
痛
痴
療
癌
癒
癖
癡
癸
発
登
發
白
百
的
皆
皇
皐
皮
盆
盈
益
盖
盗
盛
盜
盟
盡
監
盤
盧
目
盲
直
相
盾
省
眉
看
県
眞
真
眠
眩
眼
着
睡
督
睦
睿
瞬
瞳
瞻
矛
矢
矣
知
矩
短
矯
石
砂
研
砲
破
硏
硬
碍
碎
碑
碧
碩
確
磁
磨
磯
礎
示
礼
社
祀
祈
祉
祐
祖
祚
祝
神
祠
祥
票
祭
祿
禁
禍
禎
福
禦
禧
禪
禮
禹
禽
禾
秀
私
秉
秋
科
秒
秘
租
秦
秩
移
稀
稅
程
稗
稚
種
稱
稲
稷
稻
稽
稿
穀
穂
穆
積
穴
究
空
穿
突
窓
窟
窩
窮
立
站
竜
竝
竟
章
童
端
競
竹
竿
笑
笛
笠
符
第
筆
等
筋
筑
筒
答
策
筵
箋
箕
算
箚
管
箭
箱
節
範
篆
篇
築
篠
篤
簡
簿
籍
籠
米
粉
粒
粗
粟
粧
粹
精
糖
糧
糸
系
紀
紂
約
紅
紋
納
純
紗
紙
級
紛
素
紡
索
紫
累
細
紳
紹
終
絃
組
絆
経
結
絡
給
統
絲
絵
絶
絹
經
継
続
綜
綠
維
綱
網
綺
綾
綿
緊
総
緑
緒
緖
線
締
緣
編
緩
緯
練
縛
縣
縮
縱
總
績
繁
繋
織
繡
繩
繪
繫
繰
繼
纂
續
纏
经
缺
罪
置
罰
署
罷
羅
羊
羌
美
羞
群
義
羲
羽
翁
翊
習
翔
翠
翰
翼
耀
老
考
者
耆
而
耐
耕
耳
耶
耽
聖
聚
聞
聡
聯
聰
聲
聴
職
聽
肅
肇
肉
肖
肝
股
肢
肥
肩
肯
育
肺
胃
背
胎
胞
胡
胤
胥
胸
能
脂
脇
脈
脚
脣
脫
脱
脳
脾
腎
腐
腕
腦
腫
腰
腸
腹
膜
膳
膽
臟
臣
臥
臨
自
臭
至
致
臺
臼
與
興
舊
舌
舍
舒
舜
舞
舟
航
般
舰
舶
船
艦
艮
良
色
艶
艾
芝
花
芳
芸
芽
苑
苗
苟
若
苦
英
茂
范
茅
茶
荀
草
荊
荒
荷
莉
莊
莫
菅
菊
菌
菓
菜
菩
華
菱
菴
萊
萌
萬
落
葉
著
葛
董
葬
葵
蒙
蒲
蒸
蒼
蓄
蓋
蓬
蓮
蔘
蔚
蔡
蔣
蔭
蔵
蕃
蕩
蕭
薄
薇
薛
薦
薩
薪
薬
薰
藍
藏
藝
藤
藥
藩
藻
蘇
蘊
蘭
虎
虐
處
虚
虛
虜
虞
號
虫
虹
蛇
蜀
蜂
蜜
蝕
蝶
融
螺
蟲
蠶
蠻
血
衆
行
衍
術
街
衙
衛
衝
衡
衣
表
衰
衷
袁
袋
袖
被
裁
裂
装
裏
裕
補
裝
裨
裳
裵
裸
製
複
褒
襄
襲
西
要
覆
覇
見
規
視
覚
親
観
覺
覽
觀
角
解
触
觸
言
訂
計
訊
討
訓
託
記
訟
訣
訥
訪
設
許
訳
訴
診
註
証
詐
詔
評
詞
詠
試
詩
詰
話
該
詳
誅
誇
誌
認
誓
誕
誘
語
誠
誣
誤
誥
誦
說
説
読
誰
課
誼
調
談
請
論
諡
諦
諧
諫
諭
諱
諸
諺
諾
謀
謁
謂
謄
謎
謙
講
謝
謠
謨
謹
證
識
譚
譜
警
譯
議
護
譽
讀
變
讐
讓
讚
让
说
请
谷
豆
豈
豊
豚
象
豪
豫
豹
貌
貝
貞
負
財
貢
貧
貨
販
貪
貫
責
貰
貴
買
貸
費
貿
賀
賃
資
賈
賊
賓
賜
賞
賠
賢
賣
賤
賦
質
賭
賴
贈
贊
贖
赤
赦
赫
走
赴
起
超
越
趙
趣
足
趾
跋
距
跡
路
跳
踊
踏
踐
蹟
蹴
躍
身
車
軌
軍
軒
軟
転
軸
軽
軾
較
載
輔
輕
輝
輩
輪
輯
輸
輿
轄
轉
轍
轟
辛
辦
辨
辭
辯
辰
辱
農
辺
込
迅
过
迎
近
返
还
这
迦
迪
迫
述
迷
迹
追
退
送
逃
逆
逍
透
逐
途
這
通
逝
速
造
逢
連
逮
週
進
逸
遁
遂
遇
遊
運
遍
過
道
達
違
遙
遠
遡
遣
遥
適
遮
遲
遵
遷
選
遺
遼
避
還
邊
邑
那
邦
邪
邱
邵
邸
郁
郊
郎
郞
郡
部
郭
郵
郷
都
鄒
鄕
鄧
鄭
酉
酌
配
酒
酬
酷
酸
醉
醒
醜
醫
醬
采
釋
里
重
野
量
金
釜
針
釣
鈴
鉄
鉉
鉢
銀
銃
銅
銘
銳
鋒
鋼
錄
錢
錦
錫
錯
録
鍊
鍋
鍛
鍵
鍾
鎌
鎔
鎖
鎬
鎭
鎮
鏞
鏡
鐘
鐵
鐸
鑄
鑑
鑛
長
长
門
閃
閉
開
閑
閒
間
閔
関
閣
閥
閭
閱
閻
闇
闕
闘
關
闢
间
阜
阪
阮
防
阳
阻
阿
陀
附
降
限
陝
院
陣
除
陪
陰
陳
陵
陶
陷
陸
険
陽
隅
隆
隊
隋
階
隔
際
障
隠
隣
隨
險
隱
雀
雁
雄
雅
集
雇
雍
雕
雖
雙
雜
離
難
雨
雪
雲
零
雷
電
需
震
霊
霜
霞
霧
露
靈
靑
青
靖
静
靜
非
面
革
鞍
鞭
韋
韓
韜
音
韻
響
頁
頂
頃
項
順
須
頌
預
頑
頓
領
頭
頼
題
額
顔
願
顚
類
顧
顯
風
风
飛
飜
食
飢
飮
飯
飲
飼
飽
飾
養
餓
餘
餠
館
饌
首
香
馨
馬
馮
馳
駄
駅
駆
駐
駒
駕
駿
騎
騒
験
騰
騷
驅
驗
驚
驛
骨
骸
髓
體
高
髪
髮
鬪
鬱
鬼
魂
魄
魅
魏
魔
魚
魯
鮑
鮮
鱗
鳥
鳩
鳳
鳴
鴨
鴻
鵬
鶴
鷄
鷹
鹽
鹿
麗
麟
麥
麻
黃
黄
黎
黑
黒
默
黙
點
黨
鼎
鼓
鼠
鼻
齊
齋
齒
齡
龍
龙
龜
꙼
가
각
간
갇
갈
갉
감
갑
값
갓
갔
강
갖
갗
갘
같
갚
갛
개
객
갠
갤
갬
갭
갯
갰
갱
갸
갹
걀
걍
걔
걘
거
걱
건
걷
걸
검
겁
것
겄
겅
겆
겉
겊
겋
게
겐
겔
겜
겝
겟
겠
겡
겨
격
겪
견
결
겸
겹
겻
겼
경
곀
곁
계
곗
고
곡
곤
곧
골
곪
곬
곯
곰
곱
곳
공
곶
곸
과
곽
관
괄
괌
광
괘
괜
괭
괴
괵
괸
굇
굉
교
굣
구
국
군
굳
굴
굵
굶
굼
굽
굿
궁
궂
궈
권
궐
궜
궤
궨
귀
귄
귈
귐
귓
규
균
귤
그
극
근
귿
글
긁
금
급
긋
긍
긔
기
긱
긴
긷
길
긿
김
깁
깃
깄
깅
깊
까
깍
깎
깐
깔
깜
깝
깟
깠
깡
깥
깨
깬
깰
깸
깻
깼
깽
꺄
꺅
꺼
꺽
꺾
껀
껄
껌
껍
껏
껐
껑
께
껜
껫
껭
껴
꼈
꼍
꼐
꼬
꼭
꼰
꼴
꼼
꼽
꼿
꽁
꽂
꽃
꽈
꽉
꽐
꽝
꽤
꽥
꽹
꾀
꾐
꾜
꾸
꾹
꾼
꿀
꿇
꿈
꿉
꿋
꿍
꿎
꿔
꿨
꿩
꿰
꿴
뀌
뀐
뀔
뀜
뀝
뀨
끄
끅
끈
끊
끌
끓
끔
끕
끗
끙
끝
끼
끽
낀
낄
낌
낍
낏
낑
나
낙
낚
난
낟
날
낡
남
납
낫
났
낭
낮
낯
낰
낱
낳
내
낵
낸
낼
냄
냅
냇
냈
냉
냐
냑
냔
냘
냠
냥
너
넉
넋
넌
널
넒
넓
넘
넙
넛
넜
넝
넣
네
넥
넨
넬
넴
넵
넷
넸
넹
넼
녀
녁
년
녈
념
녓
녔
녕
녘
녜
노
녹
논
놀
놈
놉
놋
농
높
놓
놔
놧
놨
뇌
뇨
뇬
뇰
뇸
뇽
누
눅
눈
눌
눔
눕
눗
눙
눠
눴
뉘
뉜
뉠
뉩
뉴
늄
늉
느
늑
는
늘
늙
늠
능
늦
늪
늬
니
닉
닌
닐
님
닙
닛
닝
닠
닢
다
닥
닦
단
닫
달
닭
닮
닯
닳
담
답
닷
당
닻
닼
닿
대
댁
댄
댈
댐
댑
댓
댔
댕
댜
댱
더
덕
덖
던
덜
덟
덤
덥
덧
덩
덫
덮
데
덱
덴
델
뎀
뎁
뎃
뎅
뎈
뎌
뎐
뎠
뎡
뎨
뎬
도
독
돈
돋
돌
돔
돕
돗
동
돛
돝
돠
돤
돼
됏
됐
되
된
될
됨
됩
됫
됬
됭
됴
두
둑
둔
둘
둠
둡
둣
둥
둬
뒀
뒈
뒤
뒷
뒹
듀
듄
듈
듐
듕
드
득
든
듣
들
듦
듬
듭
듯
등
듸
디
딕
딘
딛
딜
딤
딥
딧
딨
딩
딪
딫
따
딱
딴
딸
땀
땁
땃
땄
땅
땋
때
땐
땔
땜
땟
땠
땡
땨
떄
떠
떡
떤
떨
떫
떳
떴
떵
떻
떼
떽
뗀
뗄
뗏
뗐
또
똑
똔
똘
똠
똥
똬
뙇
뙈
뙤
뚜
뚝
뚠
뚤
뚫
뚱
뛰
뛴
뛸
뜀
뜨
뜩
뜬
뜯
뜰
뜸
뜹
뜻
띄
띈
띌
띔
띕
띠
띤
띨
띵
라
락
란
랄
람
랍
랏
랐
랑
랔
랖
랗
래
랙
랜
랠
램
랩
랫
랬
랭
랰
랴
략
랸
량
러
럭
런
럴
럼
럽
럿
렀
렁
렇
레
렉
렌
렐
렘
렙
렛
렜
렝
려
력
련
렬
렴
렵
렷
렸
령
례
롄
로
록
론
롤
롬
롭
롯
롱
롸
뢰
뢴
뢸
룀
룁
료
룡
루
룩
룬
룰
룸
룹
룻
룽
뤄
뤘
뤠
뤼
뤽
륀
륄
륌
류
륙
륜
률
륨
륭
르
륵
른
를
름
릅
릇
릉
릎
릏
리
릭
린
릴
림
립
릿
링
마
막
만
많
맏
말
맑
맘
맙
맛
망
맞
맟
맠
맡
맣
매
맥
맨
맬
맴
맵
맷
맸
맹
맺
먀
먄
먐
먜
머
먹
먼
멀
멈
멋
멍
멎
멓
메
멕
멘
멜
멤
멥
멧
멨
멩
며
멱
면
멸
몃
몄
명
몆
몇
모
목
몫
몬
몰
몸
몹
못
몽
뫄
뫼
묀
묄
묏
묘
묜
묠
무
묵
묶
문
묻
물
묽
뭄
뭅
뭇
뭉
뭍
뭐
뭔
뭘
뭡
뭣
뭥
뮈
뮌
뮐
뮤
뮨
뮬
뮴
므
믄
믈
믐
믓
미
믹
민
믿
밀
밈
밉
밋
밌
밍
및
밑
바
박
밖
반
받
발
밝
밟
밤
밥
밧
방
밭
배
백
밴
밸
뱀
뱁
뱃
뱅
뱉
뱌
버
벅
번
벋
벌
범
법
벗
벙
벚
베
벡
벤
벧
벨
벰
벱
벳
벵
벼
벽
변
별
볍
볏
볐
병
볕
볜
보
복
볶
본
볼
봄
봅
봇
봉
봐
봣
봤
봬
뵀
뵈
뵌
뵐
뵘
뵙
뵤
부
북
분
붇
불
붉
붐
붑
붓
붕
붙
뷔
뷜
뷰
뷴
뷸
븀
븅
브
븐
블
븨
비
빅
빈
빌
빔
빕
빗
빙
빚
빛
빠
빡
빤
빨
빰
빱
빳
빴
빵
빻
빼
빽
뺀
뺄
뺌
뺏
뺐
뺑
뺨
뺴
뻐
뻑
뻔
뻗
뻘
뻣
뻤
뻥
뻬
뼈
뼉
뼘
뼛
뽀
뽁
뽄
뽈
뽐
뽑
뽕
뾰
뿅
뿌
뿍
뿐
뿔
뿜
뿡
쀼
쁘
쁜
쁠
쁨
쁩
삐
삑
삔
삘
삥
사
삭
삯
산
살
삵
삶
삼
삽
삿
샀
상
샅
새
색
샌
샐
샘
샙
샛
샜
생
샤
샥
샨
샬
샴
샵
샷
샹
샾
섀
섕
서
석
섞
선
섣
설
섦
섬
섭
섯
섰
성
섴
섶
세
섹
센
셀
셈
셉
셋
셌
셍
셔
셕
션
셜
셤
셧
셨
셩
셰
셴
셸
솅
소
속
솎
손
솔
솜
솝
솟
송
솥
솨
솽
쇄
쇠
쇤
쇳
쇼
쇽
숀
숄
숌
숍
숏
숑
수
숙
순
숟
술
숨
숩
숫
숭
숯
숱
숲
숴
쉈
쉐
쉑
쉔
쉘
쉬
쉭
쉰
쉴
쉼
쉽
쉿
슈
슉
슌
슐
슘
슛
슝
스
슥
슨
슬
슭
슴
습
슷
승
슼
슾
싀
시
식
신
싣
실
싫
심
십
싯
싱
싶
싸
싹
싼
쌀
쌈
쌉
쌌
쌍
쌓
쌔
쌕
쌘
쌤
쌩
쌰
썅
써
썩
썬
썰
썸
썹
썻
썼
썽
쎄
쎈
쎌
쏘
쏙
쏜
쏟
쏠
쏨
쏩
쏭
쏴
쐈
쐐
쐬
쑈
쑤
쑥
쑨
쑹
쒀
쒸
쓰
쓱
쓴
쓸
씀
씁
씌
씐
씨
씩
씬
씰
씸
씹
씻
씽
아
악
안
앉
않
알
앍
앎
앓
암
압
앗
았
앙
앜
앞
애
액
앤
앨
앰
앱
앳
앴
앵
야
약
얀
얄
얇
얌
얍
얏
양
얔
얕
얗
얘
얜
어
억
언
얹
얻
얼
얽
엄
업
없
엇
었
엉
엊
엌
엎
에
엑
엔
엘
엠
엡
엣
엥
여
역
엮
연
열
엷
염
엽
엾
엿
였
영
옄
옅
옆
옇
예
옉
옌
옐
옘
옙
옛
오
옥
온
올
옭
옮
옳
옴
옵
옷
옹
옻
옼
와
왁
완
왈
왐
왑
왓
왔
왕
왜
왠
왤
왱
외
왼
욀
요
욕
욘
욜
욤
욥
욧
용
욬
우
욱
운
울
움
웁
웃
웅
워
웍
원
월
웜
웟
웠
웡
웤
웨
웩
웬
웰
웸
웹
웻
웽
위
윅
윈
윌
윔
윕
윗
윙
유
육
윤
율
윰
윱
윳
융
윷
으
윽
윾
은
을
읊
음
읍
읎
읏
응
의
읜
읭
이
익
인
일
읽
잃
임
입
잇
있
잉
잊
잌
잎
자
작
잔
잖
잘
잠
잡
잣
잤
장
잦
재
잭
잰
잴
잼
잽
잿
쟀
쟁
쟈
쟉
쟌
쟎
쟝
쟤
저
적
전
절
젊
젋
점
접
젓
젔
정
젖
제
젝
젠
젤
젬
젭
젯
젱
져
젹
젼
졀
졋
졌
졍
졔
조
족
존
졸
좀
좁
좃
종
좆
좇
좋
좌
좍
좔
좡
좥
좦
죄
죈
죌
죗
죠
죤
죵
주
죽
준
줄
줌
줍
줏
중
줘
줫
줬
줴
쥐
쥑
쥔
쥘
쥬
쥭
쥰
쥴
즁
즈
즉
즌
즐
즘
즙
즛
증
즤
지
직
진
짇
질
짊
짐
집
짓
징
짖
짘
짙
짚
짜
짝
짠
짢
짤
짦
짧
짬
짭
짰
짱
짴
째
짹
짼
쨈
쨉
쨋
쨌
쨍
쨔
쨘
쨩
쨰
쩌
쩍
쩐
쩔
쩜
쩝
쩡
쩨
쪄
쪘
쪙
쪹
쪼
쪽
쪾
쫀
쫄
쫌
쫑
쫒
쫓
쫘
쫙
쬐
쬬
쭈
쭉
쭌
쭐
쭘
쭙
쭝
쭤
쮸
쯔
쯤
쯧
찌
찍
찐
찔
찜
찝
찡
찢
찧
차
착
찬
찮
찰
참
찹
찻
찼
창
찾
채
책
챈
챌
챔
챕
챗
챘
챙
챠
챤
챰
챱
챳
챵
처
척
천
철
첨
첩
첫
청
체
첵
첸
첼
쳄
쳅
쳇
쳉
쳐
쳔
쳣
쳤
쳥
초
촉
촌
촐
촘
촙
촛
총
촤
촥
촨
촬
촵
최
쵝
쵸
춋
추
축
춘
출
춤
춥
춧
충
춰
췄
췌
취
췬
츄
츈
츌
츙
츠
측
츤
츨
츰
츳
층
치
칙
친
칠
칡
침
칩
칫
칭
칰
카
칵
칸
칼
캄
캅
캇
캉
캐
캑
캔
캘
캠
캡
캣
캤
캥
캬
커
컥
컨
컫
컬
컴
컵
컷
컸
컹
컾
케
켁
켄
켈
켐
켑
켓
켕
켜
켠
켤
켯
켰
코
콕
콘
콜
콤
콥
콧
콩
콰
콱
콴
콸
쾅
쾌
쾡
쾨
쾰
쿄
쿈
쿠
쿡
쿤
쿨
쿰
쿱
쿳
쿵
쿼
퀀
퀄
퀑
퀘
퀭
퀴
퀵
퀸
퀼
큅
큐
큔
큘
큥
크
큭
큰
클
큼
큽
킁
키
킥
킨
킬
킴
킵
킷
킹
킼
타
탁
탄
탈
탉
탐
탑
탓
탔
탕
태
택
탠
탤
탬
탭
탯
탰
탱
탸
터
턱
턴
털
텀
텁
텃
텄
텅
테
텍
텐
텔
템
텝
텟
텡
텨
텼
톄
톈
토
톡
톤
톨
톰
톱
톳
통
퇘
퇴
툇
투
툭
툰
툴
툼
툽
퉁
퉈
퉜
퉤
튀
튄
튈
튕
튜
튠
튤
튬
트
특
튼
튿
틀
틈
틉
틋
틔
티
틱
틴
틸
팀
팁
팃
팅
파
팍
팎
판
팔
팜
팝
팟
팠
팡
팥
패
팩
팬
팰
팸
팹
팻
팼
팽
퍄
퍼
퍽
펀
펄
펌
펍
펏
펐
펑
페
펙
펜
펠
펨
펩
펫
펭
펴
편
펼
폄
폈
평
폐
포
폭
폰
폴
폼
폿
퐁
퐈
퐝
푀
표
푠
푯
푸
푹
푼
풀
풂
품
풉
풋
풍
퓌
퓨
퓰
퓸
프
픈
플
픔
픕
피
픽
핀
필
핌
핍
핏
핑
하
학
한
할
핡
핥
함
합
핫
항
핰
핳
해
핵
핸
핼
햄
햅
햇
했
행
햌
햏
햐
향
헀
허
헉
헌
헐
험
헙
헛
헝
헠
헣
헤
헥
헨
헬
헴
헵
헷
헹
헿
혀
혁
현
혈
혐
협
혓
혔
형
혜
호
혹
혼
홀
홈
홉
홋
홍
홑
화
확
환
활
홧
황
홰
홱
횃
회
획
횐
횔
횟
횡
효
횬
횽
후
훅
훈
훌
훑
훔
훕
훗
훙
훠
훤
훨
훼
휀
휑
휘
휙
휜
휠
휨
휩
휭
휴
휼
흄
흉
흐
흑
흔
흘
흙
흠
흡
흣
흥
흩
희
흰
히
힉
힌
힐
힘
힙
힛
힝
힣
更
車
龜
金
奈
羅
樂
洛
落
亂
蘭
郎
來
冷
勞
盧
老
路
露
魯
綠
錄
鹿
論
雷
陵
樂
寧
率
異
復
不
參
塞
沈
若
略
兩
梁
良
量
呂
女
旅
麗
力
歷
年
戀
聯
蓮
連
列
烈
廉
念
令
寧
嶺
零
靈
領
例
禮
隸
惡
遼
龍
劉
柳
流
留
類
六
陸
倫
輪
律
栗
隆
利
吏
履
易
李
梨
理
離
林
臨
立
狀
茶
切
宅
行
︎
️
！
＂
＃
＄
％
＆
＇
（
）
＊
＋
，
－
．
／
０
１
２
３
４
５
６
：
；
＜
＝
＞
？
＠
Ａ
Ｃ
Ｄ
Ｅ
Ｎ
Ｏ
Ｒ
Ｓ
Ｔ
［
＼
］
＾
＿
｀
ｇ
ｍ
ｔ
｜
～
｡
｢
｣
､
･
ｯ
ｰ
ｲ
ｽ
ﾃ
ﾄ
ﾉ
ﾝ
ﾞ
ﾟ
￡
￣
￥
￦
￭
𖤐
🇰
🇷
🌈
🌊
🌙
🌚
🌝
🌞
🌟
🌱
🌳
🌴
🌷
🌸
🌹
🌼
🌿
🍀
🍁
🍂
🍃
🍅
🍇
🍉
🍊
🍋
🍌
🍎
🍑
🍒
🍓
🍔
🍕
🍖
🍗
🍚
🍜
🍝
🍞
🍠
🍣
🍦
🍪
🍫
🍯
🍰
🍳
🍴
🍷
🍺
🍻
🍽
🎀
🎁
🎂
🎄
🎈
🎉
🎤
🎧
🎬
🎵
🎶
🏃
🏊
🏠
🏻
🏼
🏽
🐔
🐟
🐥
🐰
🐶
🐷
🐻
🐽
🐾
👀
👅
👆
👇
👈
👉
👊
👋
👌
👍
👏
👦
👧
👨
👩
👫
👯
👶
👻
👼
💃
💋
💐
💓
💕
💖
💗
💘
💙
💚
💛
💜
💝
💞
💟
💦
💧
💨
💪
💫
💯
📌
📍
📖
📚
📷
📸
🔜
🔥
🔸
🖒
🖤
😀
😁
😂
😃
😄
😅
😆
😇
😉
😊
😋
😌
😍
😎
😏
😐
😑
😒
😓
😔
😖
😗
😘
😙
😚
😛
😜
😝
😞
😡
😢
😣
😤
😥
😨
😩
😪
😫
😬
😭
😮
😰
😱
😲
😳
😴
😵
😶
😷
😻
🙂
🙃
🙄
🙅
🙆
🙇
🙈
🙉
🙊
🙋
🙌
🙏
🚌
🚴
🤔
🤗
🤘
🤟
🤣
🤤
🤦
🤧
🤩
🤪
🤬
🤭
🤷
🥄
🥐
🥖
🥛
🥰
🥳
🥺
🧀
🧚
🧡
##i
##s
##포
##츠
##인
##텔
##리
##전
##스
##를
##5
##e
##a
##c
##6
##4
##8
##교
##류
##행
##사
##와
##업
##하
##기
##동
##거
##나
##상
##고
##등
##학
##이
##라
##도
##양
##자
##권
##금
##융
##회
##조
##약
##푸
##치
##에
##켄
##었
##다
##결
##되
##는
##유
##0
##3
##명
##있
##데
##민
##농
##장
##화
##주
##로
##돌
##려
##드
##며
##지
##원
##준
##만
##침
##현
##희
##씨
##가
##r
##h
##l
##y
##아
##시
##야
##마
##비
##소
##울
##의
##켜
##보
##임
##♥
##내
##구
##요
##부
##작
##을
##연
##중
##으
##생
##활
##서
##n
##k
##A
##Y
##C
##T
##선
##위
##t
##o
##w
##탄
##광
##형
##해
##혜
##저
##줄
##알
##대
##경
##항
##공
##료
##레
##디
##악
##본
##성
##씬
##더
##니
##수
##b
##u
##z
##즈
##m
##1
##9
##댄
##개
##국
##죄
##ㆍ
##궤
##안
##게
##겠
##군
##짜
##맘
##들
##어
##김
##종
##과
##뀔
##듯
##적
##히
##련
##망
##문
##면
##신
##차
##효
##о
##п
##з
##ж
##е
##루
##율
##간
##크
##습
##윤
##통
##반
##은
##한
##색
##배
##너
##온
##ㅎ
##산
##술
##험
##정
##까
##택
##켓
##린
##토
##량
##용
##랑
##절
##V
##식
##틀
##러
##집
##청
##년
##근
##물
##티
##슈
##ㅜ
##켰
##든
##란
##빵
##네
##승
##했
##출
##긴
##복
##7
##래
##여
##f
##역
##르
##테
##천
##→
##략
##혁
##떼
##따
##진
##족
##d
##봉
##억
##2
##쁠
##꺼
##같
##필
##Q
##충
##셔
##죠
##덫
##체
##관
##키
##록
##살
##격
##새
##오
##답
##송
##발
##찬
##타
##세
##바
##제
##뤄
##일
##탁
##미
##럽
##J
##머
##프
##트
##력
##님
##우
##젠
##벅
##걸
##호
##봐
##×
##편
##홈
##페
##축
##액
##꼐
##벽
##랜
##턴
##빙
##처
##럼
##계
##육
##락
##뿐
##곤
##건
##피
##올
##매
##입
##모
##질
##환
##카
##캠
##쟁
##파
##추
##느
##냐
##p
##옥
##I
##x
##M
##빌
##팍
##딩
##단
##F
##E
##삼
##맥
##ㅠ
##착
##런
##폐
##셜
##궁
##R
##D
##깨
##∼
##협
##노
##방
##률
##렌
##십
##넌
##ス
##マ
##イ
##ル
##돼
##브
##벚
##꽃
##놀
##할
##옹
##ㅇ
##던
##분
##책
##흔
##B
##값
##버
##탈
##론
##검
##납
##설
##득
##템
##감
##능
##엔
##숙
##께
##변
##칭
##쇼
##댕
##직
##커
##메
##담
##초
##쌈
##당
##표
##합
##법
##놓
##뜨
##괴
##뚝
##령
##창
##길
##띠
##급
##음
##갈
##남
##퍼
##째
##칼
##터
##빡
##쳐
##참
##없
##속
##묘
##무
##g
##점
##겄
##병
##영
##섭
##품
##존
##´
##S
##N
##G
##석
##예
##틴
##뷰
##퇴
##킬
##L
##털
##그
##번
##두
##였
##콤
##フ
##ト
##ウ
##ォ
##レ
##ン
##먹
##것
##촌
##W
##낳
##곡
##좋
##엠
##칸
##태
##쁘
##센
##몬
##랙
##ど
##う
##황
##ー
##ズ
##ブ
##ド
##재
##씩
##딘
##슨
##쫓
##판
##갔
##밝
##v
##넷
##푼
##투
##코
##졌
##렀
##뮬
##콕
##큼
##획
##증
##둔
##밀
##림
##ㅏ
##혼
##릇
##허
##실
##월
##쌍
##백
##심
##름
##웠
##립
##확
##슬
##북
##평
##언
##응
##룹
##워
##ｍ
##앙
##☺
##️
##램
##콘
##념
##익
##팩
##줌
##날
##O
##엽
##규
##튀
##㎥
##탠
##릭
##녀
##ば
##っ
##컬
##패
##쓰
##널
##컨
##팅
##된
##혈
##곳
##봤
##취
##불
##말
##ち
##ゃ
##し
##ㄱ
##ㅋ
##솔
##쉬
##눔
##뚜
##막
##빕
##베
##운
##열
##겐
##л
##д
##й
##염
##균
##왕
##앞
##굴
##벼
##찰
##K
##H
##달
##🌊
##람
##향
##섬
##★
##짝
##찌
##귀
##강
##극
##픽
##탕
##촉
##친
##볼
##써
##왔
##짬
##뽕
##층
##목
##깐
##닉
##U
##때
##폭
##끼
##될
##독
##X
##컷
##폴
##캐
##논
##댁
##암
##밥
##잖
##셨
##외
##휴
##켈
##뜰
##─
##펌
##잇
##져
##룬
##탓
##뿔
##후
##👍
##🏻
##P
##ㄲ
##늘
##㏊
##채
##닝
##척
##み
##철
##뼈
##땅
##딕
##퓨
##즘
##둥
##릴
##㎏
##블
##룸
##겨
##▷
##킴
##삐
##🌿
##돈
##각
##샤
##벌
##케
##큐
##벨
##풍
##엄
##싶
##않
##흠
##앰
##플
##ぜ
##か
##そ
##れ
##が
##쯤
##릉
##왓
##㎡
##짖
##グ
##ラ
##됬
##객
##ㄸ
##흥
##륙
##킨
##움
##몇
##녹
##탐
##렸
##⋯
##완
##훈
##델
##팔
##최
##믿
##뇨
##❗
##았
##렛
##클
##j
##팀
##な
##い
##で
##く
##だ
##さ
##펫
##함
##쇄
##뇌
##례
##😷
##폰
##렁
##특
##떽
##뢰
##ī
##셀
##갤
##애
##빛
##렘
##ㅅ
##톤
##탸
##긍
##칙
##ㅓ
##링
##햄
##줬
##㎢
##못
##혹
##슐
##즌
##섯
##쌩
##덕
##と
##ゆ
##ま
##범
##순
##뎀
##큰
##씌
##テ
##ッ
##タ
##넬
##쌓
##룡
##손
##퉁
##징
##눈
##룩
##휘
##냥
##받
##콩
##글
##땜
##났
##뜯
##굵
##렉
##욕
##롤
##톰
##꼼
##덴
##좀
##쏘
##펜
##넥
##먼
##퀸
##홀
##륵
##띵
##볶
##삭
##랴
##첨
##닌
##q
##벡
##튬
##핍
##＞
##헌
##빠
##랩
##🙇
##밴
##춤
##굼
##총
##ᄌ
##ᆡ
##ᄒ
##ᆞ
##난
##틸
##쑈
##킹
##봇
##맹
##잉
##벤
##🤗
##쿠
##㎜
##콜
##짓
##て
##サ
##ビ
##に
##누
##낸
##른
##쪽
##랍
##앤
##앨
##춘
##옷
##쾌
##멘
##빈
##둡
##므
##멍
##😀
##눴
##둑
##싱
##탱
##밖
##밭
##헤
##カ
##リ
##ゲ
##톱
##껍
##냉
##왈
##맨
##많
##멧
##별
##팜
##●
##ク
##エ
##オ
##ア
##ァ
##맛
##헨
##랫
##폼
##뿌
##짱
##힘
##럴
##캉
##ガ
##ィ
##쏜
##혀
##😘
##웃
##닛
##측
##씹
##접
##골
##✨
##녕
##됨
##숑
##횟
##걔
##뭐
##괄
##됐
##펠
##👀
##짐
##풀
##웅
##Ⅱ
##눙
##박
##쥐
##숨
##랄
##흐
##ワ
##～
##こ
##ハ
##곶
##윙
##や
##す
##펩
##핑
##렇
##눠
##줘
##떠
##욥
##견
##슴
##낌
##텍
##≫
##잡
##혔
##텐
##℃
##틈
##탭
##압
##🐶
##몰
##윈
##쓴
##ｇ
##뎁
##멜
##렙
##샵
##Π
##Δ
##る
##ら
##빼
##싸
##쫒
##갓
##훼
##홉
##앗
##き
##ゅ
##ぎ
##왜
##멸
##첼
##は
##た
##얼
##샜
##팰
##롬
##겔
##삿
##잔
##롱
##ㄴ
##짧
##엘
##밸
##묵
##엣
##뎠
##쳤
##샷
##팥
##냔
##킷
##🤔
##틱
##뉴
##맞
##＝
##￦
##또
##ぶ
##션
##뜻
##껴
##렬
##🏃
##♀
##²
##팡
##춥
##빅
##얄
##쩌
##얍
##😂
##젝
##넣
##햇
##쟈
##덤
##Z
##챌
##ん
##ù
##깅
##즐
##싀
##つ
##쓸
##も
##젯
##밤
##ム
##シ
##▼
##퀴
##꾼
##흡
##쉈
##읍
##냈
##렝
##쇠
##슥
##밌
##싫
##㎞
##곁
##녁
##늬
##쩍
##ヘ
##⋅
##셰
##н
##ы
##찾
##ゥ
##パ
##꼴
##룰
##γ
##겼
##섶
##⇒
##💕
##븐
##ケ
##쩔
##햌
##낫
##챳
##ㅔ
##긔
##턱
##잠
##웨
##갱
##핀
##눕
##덧
##🖤
##낙
##롭
##듀
##덜
##뭇
##렵
##꽁
##돠
##밍
##첩
##컵
##싹
##겹
##썬
##뺀
##챔
##겟
##㎛
##뮤
##ず
##お
##얀
##폈
##냅
##렴
##ロ
##쭈
##탑
##뚫
##よ
##챠
##떨
##찍
##°
##τ
##ρ
##ά
##β
##ω
##ν
##칠
##뗀
##숲
##쿨
##홍
##딜
##죽
##잘
##땡
##랬
##꼿
##а
##р
##ь
##я
##좆
##짤
##あ
##몽
##쯔
##ü
##샨
##け
##곱
##쿤
##엑
##쳔
##ö
##젤
##옴
##늠
##튼
##☆
##ㅐ
##ㅆ
##뱃
##の
##숍
##샹
##긋
##헬
##😍
##갑
##꾸
##엿
##チ
##쨩
##👏
##엉
##봄
##잼
##핵
##댔
##멀
##ㅌ
##랭
##끊
##렐
##슘
##벗
##끝
##졸
##뿜
##○
##퀘
##셋
##낄
##꼬
##쿱
##🙈
##😃
##팟
##팬
##깔
##セ
##ネ
##몹
##튕
##ナ
##맸
##켯
##뎈
##↗
##붙
##쉑
##놨
##끗
##ペ
##ャ
##몸
##엇
##럭
##푹
##ダ
##넨
##떡
##캔
##＜
##찮
##깻
##잎
##ㅊ
##핸
##믹
##멩
##솥
##뱅
##챗
##バ
##돔
##쌀
##끔
##흙
##덩
##껄
##ㅣ
##낼
##뭔
##딸
##맵
##쒸
##륨
##흰
##붓
##젼
##コ
##｜
##め
##◇
##얘
##돗
##갖
##😙
##꿨
##뒤
##낚
##쁜
##꽂
##옆
##빨
##앱
##쾅
##ぱ
##썹
##곰
##😭
##귄
##놔
##룽
##툴
##뒀
##겁
##🍁
##Ⅲ
##뉘
##펙
##쿵
##쿡
##т
##숭
##낵
##겜
##끈
##딱
##잭
##퀼
##ê
##じ
##쥬
##튜
##옄
##욤
##흘
##땐
##랐
##귤
##뒷
##뵙
##핏
##콰
##텟
##렷
##욧
##♪
##👉
##ㄹ
##펀
##ソ
##ギ
##겸
##ジ
##촬
##좌
##붉
##엎
##べ
##깃
##쫄
##롯
##＋
##❤
##팽
##و
##س
##ی
##む
##찔
##읽
##è
##첸
##ミ
##뷴
##뜀
##괜
##Ⅳ
##ヒ
##힙
##탯
##졔
##및
##닷
##컴
##🍑
##🍇
##🍒
##🍊
##딨
##쌌
##낭
##꺽
##몄
##옌
##㏄
##릿
##쪄
##붕
##🙏
##🤩
##쫀
##슷
##웰
##툰
##㎎
##륭
##텀
##넘
##롄
##펄
##팁
##②
##솜
##닥
##핫
##ì
##を
##쿄
##퐁
##é
##뛸
##숯
##뻘
##칩
##흑
##ㅙ
##ベ
##댐
##샘
##캡
##댑
##👻
##밧
##わ
##뚤
##і
##🌳
##솟
##챙
##꿔
##▶
##🤷
##켤
##꽝
##😛
##밑
##꿀
##찜
##넛
##꿈
##웍
##뎨
##ヴ
##쀼
##륜
##닐
##텝
##🥰
##㈜
##웹
##へ
##뛰
##쌤
##뻔
##옵
##삶
##끄
##랏
##뽈
##닭
##쪙
##츳
##겡
##싼
##♡
##앉
##욬
##쩐
##픈
##쥭
##〇
##듬
##ā
##떳
##낀
##놈
##ㅡ
##в
##к
##с
##и
##굽
##↔
##쮸
##흉
##퇘
##ㅑ
##◆
##갯
##끌
##톡
##㎿
##🍝
##ェ
##봅
##졀
##㎾
##욜
##ц
##엌
##욱
##ね
##춰
##돋
##ㅟ
##뒹
##츄
##ä
##낮
##💛
##솨
##슛
##탔
##χ
##뚱
##숫
##쉽
##ᅀ
##ᅵ
##ᄃ
##ᆯ
##Ⅰ
##ㄷ
##꺄
##훙
##キ
##늄
##믄
##곽
##뽑
##😳
##빔
##맴
##💃
##ㅒ
##씽
##툼
##윔
##웜
##🧡
##얌
##ᅥ
##🙄
##갬
##🎤
##릎
##멤
##ご
##됩
##ß
##콥
##м
##г
##뾰
##벰
##앵
##쫘
##쉘
##톨
##캅
##꼈
##졋
##좁
##봣
##듣
##♦
##♣
##🤭
##ш
##츈
##럿
##땀
##í
##릅
##뜹
##쎈
##햐
##넉
##プ
##ピ
##꽥
##ポ
##ğ
##ㅁ
##😆
##⭐
##뎅
##デ
##뇰
##🍻
##🍺
##🍷
##묻
##깬
##냄
##뻑
##₁
##ː
##걱
##앍
##ニ
##딧
##둬
##삽
##힐
##웬
##늉
##켠
##👅
##셉
##り
##즉
##먀
##ｔ
##뭄
##®
##윗
##놉
##™
##갸
##꿉
##덱
##⑹
##햅
##쥴
##♨
##졍
##│
##♤
##☀
##🙂
##ュ
##멕
##げ
##솝
##샀
##슾
##젹
##🎶
##탬
##ほ
##펭
##밋
##ノ
##꼽
##Ｓ
##🙃
##ت
##ن
##녔
##뽀
##뻬
##≪
##휼
##メ
##モ
##😏
##😊
##뀐
##죵
##ぃ
##😁
##③
##챤
##룻
##ヲ
##ㅈ
##ㅛ
##∙
##잌
##섰
##쫑
##빗
##닠
##☜
##🚌
##캣
##젓
##ㅗ
##😨
##せ
##🎈
##깟
##줍
##뇽
##✈
##섹
##깎
##옳
##푀
##벙
##웁
##헴
##멎
##쿼
##ョ
##ㅄ
##훌
##풋
##쳉
##깍
##▒
##░
##튠
##윅
##🙋
##Ⅹ
##콴
##뻐
##떄
##힌
##🙊
##셈
##샴
##😬
##땨
##칵
##껑
##맬
##댈
##뗄
##뿍
##높
##□
##훅
##◎
##덮
##맷
##💙
##ょ
##쭉
##ɛ
##댜
##❣
##셴
##뷔
##닿
##ح
##ي
##둣
##맣
##갠
##🍠
##헹
##쥔
##쟎
##뜩
##궐
##빴
##🤘
##쪼
##🏼
##괘
##맏
##듈
##잣
##췄
##즁
##쌉
##у
##ざ
##😩
##깁
##쉭
##멋
##😋
##뎌
##첵
##캬
##샐
##ش
##썩
##🐷
##쳣
##멈
##😢
##욘
##↑
##㎝
##썰
##㏈
##ч
##쫌
##뱀
##꺅
##둘
##폿
##캇
##😅
##┃
##콧
##㎉
##쯧
##ℓ
##젬
##껀
##즙
##☕
##쳅
##づ
##섴
##좔
##듭
##쁨
##え
##깄
##텼
##닼
##탤
##펑
##첫
##쵸
##똘
##홑
##훤
##큘
##돕
##덥
##ひ
##곸
##뫼
##م
##ㅕ
##딪
##썼
##😱
##깥
##👊
##З
##ᅩ
##츨
##껭
##á
##■
##쉼
##ر
##①
##ē
##ボ
##넙
##뭉
##ぬ
##ぞ
##👌
##녘
##젊
##찻
##좦
##←
##↓
##🍰
##🤣
##땃
##팝
##넜
##퀀
##🌟
##늦
##쎄
##퓌
##â
##낱
##딴
##밈
##😄
##α
##뵤
##곬
##짹
##빤
##왑
##짠
##🔥
##셧
##짘
##똑
##ᡳ
##ᠠ
##✅
##😝
##됏
##숟
##쭘
##캄
##닙
##ㅘ
##꼭
##♠
##ｯ
##슝
##챕
##굣
##∑
##₂
##♂
##펴
##띄
##맡
##ぁ
##🏠
##꿍
##▲
##🍌
##ל
##ו
##ろ
##굉
##굿
##혐
##Э
##П
##앜
##ホ
##걍
##뻥
##짚
##ふ
##얏
##댓
##썸
##훠
##궈
##ザ
##쑤
##ᄅ
##눌
##왁
##굳
##섞
##녈
##떴
##맑
##♬
##ç
##³
##ś
##ı
##쿰
##뜬
##웻
##껏
##둠
##😰
##꽉
##슉
##ك
##㎠
##↘
##쟉
##쪘
##헉
##씐
##㎚
##😑
##쟀
##뺄
##묶
##ゴ
##쌔
##킥
##ツ
##빚
##겅
##ㅂ
##넹
##줫
##떤
##잃
##깜
##쩜
##덟
##△
##벵
##🙌
##땠
##맠
##엾
##냇
##쉰
##Ф
##び
##삘
##ゼ
##♩
##씻
##랔
##멓
##쳄
##र
##ा
##ο
##υ
##δ
##ε
##ι
##㎖
##힛
##🥐
##🥖
##💗
##ᄂ
##É
##텨
##냠
##쟝
##퀄
##쏙
##🐻
##죤
##쨍
##찐
##👧
##💦
##🌸
##ヨ
##챈
##ᅳ
##ᄀ
##ᆺ
##ᄆ
##ᅡ
##ᆫ
##ᄋ
##ə
##뤼
##뺴
##푠
##겻
##닮
##🌞
##ㅞ
##👈
##ぼ
##깝
##🍃
##깡
##냑
##믈
##깽
##🎉
##́
##쑹
##쏠
##ヤ
##２
##쉴
##닫
##🙆
##💚
##ū
##벳
##윌
##퀵
##∞
##ม
##้
##ร
##ั
##얻
##씀
##핼
##댱
##콸
##🍜
##💫
##랰
##ó
##🥺
##잽
##먄
##잊
##옇
##궜
##헷
##ר
##щ
##숴
##💟
##ا
##웤
##ю
##🍦
##х
##ㅉ
##ㄳ
##🐟
##늑
##볐
##😡
##젖
##븅
##늪
##꾜
##갰
##밟
##😴
##곀
##힝
##걷
##짢
##듦
##깊
##อ
##า
##ิ
##÷
##̆
##̈
##☞
##꾹
##톈
##🐰
##뻣
##㎍
##넴
##껜
##벋
##웟
##ぐ
##✌
##킵
##핳
##ё
##샌
##떵
##🍅
##쑥
##͈
##똥
##🥳
##낟
##툭
##🍎
##뤠
##슌
##긁
##텅
##숏
##믐
##귐
##ŋ
##볕
##찢
##쨔
##ل
##겉
##맙
##춧
##💧
##꽈
##뿅
##ǎ
##휠
##뻤
##줏
##샥
##꾀
##딫
##ŏ
##뀌
##헀
##😪
##헥
##캘
##뛴
##쏴
##⅔
##왼
##넓
##뜸
##뤘
##떻
##췌
##칫
##붐
##💜
##쉐
##ㅃ
##뺑
##좡
##⠀
##쩡
##엥
##🇰
##㎘
##횡
##컥
##✔
##뺐
##ф
##낯
##낰
##빽
##뮈
##ぅ
##햏
##넼
##횔
##ō
##쓱
##🍪
##🍴
##︎
##듸
##틔
##💪
##κ
##σ
##쒀
##썽
##켐
##י
##ה
##똔
##🤦
##헛
##ǐ
##뀨
##뗏
##쨈
##ᆷ
##ぽ
##컹
##헝
##😎
##🏊
##¹
##ب
##뽁
##쩝
##탉
##ï
##ぇ
##옐
##갹
##옛
##ς
##괭
##볍
##궂
##ş
##à
##촐
##ه
##삑
##ě
##ف
##😮
##섀
##◀
##텁
##웩
##🤤
##잤
##１
##０
##쨰
##Ａ
##Ｅ
##얔
##뀜
##왤
##̶
##듕
##μ
##걀
##빰
##👶
##넝
##😖
##랠
##윽
##🍫
##Т
##О
##렜
##슭
##😫
##😲
##빱
##🍯
##횬
##ί
##🌝
##륀
##š
##⑧
##웡
##괸
##ú
##Г
##В
##И
##А
##Ｔ
##깠
##▽
##퉈
##싯
##💓
##ό
##λ
##η
##묄
##⑬
##컾
##⊙
##θ
##룀
##🐥
##퍽
##뻗
##캤
##🎬
##ㅍ
##쑨
##앓
##엡
##썻
##껌
##끓
##캥
##ᆨ
##퓰
##팸
##읜
##♧
##ᄯ
##웽
##뵈
##띔
##쏭
##셍
##촨
##팎
##쭤
##톳
##Ω
##픔
##랖
##혓
##킁
##샬
##늙
##㎒
##🌱
##젭
##놧
##〓
##😉
##👋
##😜
##힣
##샅
##ヌ
##낑
##짭
##퉤
##꽤
##숱
##딛
##😌
##🍂
##㏃
##د
##ぺ
##ง
##เ
##솽
##촛
##㎸
##⅓
##쉿
##얹
##됫
##튤
##찡
##셩
##옮
##츤
##˃
##̵
##̑
##ᴗ
##˂
##륌
##뿡
##َ
##챘
##놋
##🍋
##⃣
##č
##셸
##😵
##ユ
##뮴
##🤪
##ㅖ
##🏽
##♯
##빻
##쳇
##몫
##쭝
##🧚
##❄
##🎄
##숩
##뱉
##ﾝ
##ｲ
##ｽ
##ﾞ
##ﾄ
##ﾃ
##쬬
##큥
##뎃
##🇷
##˚
##헐
##눗
##☁
##💘
##붑
##æ
##즤
##ㅝ
##숀
##죌
##б
##😔
##М
##◁
##็
##뷸
##딥
##끅
##랗
##촘
##훔
##뭣
##🍳
##👨
##̀
##ᴼ
##💖
##쏟
##④
##즛
##😥
##큅
##뺌
##ᴀ
##ɴ
##짴
##ᄉ
##ᆼ
##푯
##ก
##멨
##핌
##랸
##갚
##👦
##먐
##읏
##뎬
##ᄇ
##ㅚ
##씰
##ゾ
##갭
##퀑
##됴
##짇
##ø
##띨
##쐬
##윳
##흄
##↙
##↖
##젱
##±
##∥
##뇬
##펐
##🌚
##꼰
##⠄
##칡
##➰
##끽
##Ｎ
##ㅤ
##ق
##ô
##⁴
##👯
##̴
##툽
##왐
##닯
##짰
##ぷ
##팠
##흣
##🍗
##츌
##쩨
##ㅢ
##곧
##뮨
##숄
##켁
##💨
##Ｒ
##🍓
##깰
##ⅳ
##겪
##멱
##쪹
##눅
##🎵
##겋
##찹
##됭
##˝
##읭
##벱
##펏
##🎁
##💞
##홋
##샛
##볜
##뢴
##엊
##🖒
##ᴇ
##ɪ
##깸
##😻
##π
##삥
##닦
##켕
##뉠
##켑
##ج
##ة
##█
##🐾
##맟
##▣
##뫄
##쿳
##🍞
##곪
##튈
##🤟
##찼
##ǒ
##🍖
##ᴛ
##🍕
##씁
##쨋
##캑
##틋
##㈐
##텄
##쨘
##😚
##촵
##엮
##넵
##쪾
##챵
##넸
##￡
##윕
##찝
##Д
##핰
##्
##뵐
##핥
##ぉ
##쟌
##ᇰ
##◡
##⫬
##뭘
##뼘
##헠
##🌴
##Ö
##＾
##딤
##😶
##슼
##😇
##น
##ʟ
##ᴏ
##삯
##έ
##ﾟ
##ｰ
##⑤
##⑥
##⑦
##💋
##왠
##뉜
##텃
##뎡
##쭌
##쥰
##😤
##훗
##Ｃ
##−
##녓
##헙
##쭐
##ⓗ
##😒
##꿇
##€
##껫
##🍚
##짙
##땄
##젔
##㉣
##챱
##≠
##휀
##쁩
##쉔
##≒
##듐
##횃
##낍
##꙼
##◈
##▩
##φ
##˙
##🙅
##펼
##㉯
##㉰
##뚠
##앳
##◯
##쌕
##ᡝ
##컸
##펨
##팃
##텡
##얽
##🧀
##ć
##ʰ
##♭
##솎
##≥
##뮌
##씸
##녜
##훨
##🌹
##퉜
##쟤
##퐈
##긿
##휩
##ò
##å
##🤧
##ă
##홧
##옼
##헿
##ෆ
##👩
##륄
##ñ
##☝
##갇
##ǔ
##쨌
##팼
##췬
##냘
##꿩
##똬
##읎
##킼
##Е
##Р
##😣
##👫
##😗
##굶
##겆
##뺏
##맺
##갘
##짼
##셌
##💯
##픕
##☔
##앴
##옙
##🌷
##ή
##΄
##뎐
##뼉
##э
##잰
##쥘
##낏
##퓸
##뮐
##🚴
##얗
##ヶ
##🎂
##몃
##쳥
##챰
##헣
##ع
##㎐
##옻
##ł
##묜
##⑫
##뢸
##ã
##롸
##Ⅵ
##돤
##î
##ぴ
##ë
##⑨
##땟
##릏
##㎟
##🌼
##Я
##☎
##💝
##쎌
##썅
##ᴱ
##£
##븨
##🌙
##┗
##ˈ
##훕
##풉
##Ⅷ
##퍄
##긱
##곗
##촤
##ύ
##🍔
##̎
##👼
##🐽
##👆
##ღ
##쇤
##💐
##큭
##🍀
##츰
##ъ
##🎧
##뽄
##🍽
##뇸
##ա
##∀
##Б
##Ч
##㉠
##얇
##Ⅸ
##팻
##쌰
##춋
##😞
##⑴
##쐐
##😓
##Α
##깼
##Ｏ
##띤
##좃
##뱁
##앎
##뵌
##½
##≡
##뒈
##➡
##삔
##틉
##칰
##샙
##≤
##돛
##뱌
##싣
##촙
##섦
##윰
##횐
##볏
##🐔
##̄
##㎓
##̊
##📸
##튿
##🍉
##왱
##끕
##쬐
##헵
##핡
##⑷
##🥄
##솅
##ð
##⑩
##잿
##셕
##🔜
##👇
##쨉
##밉
##¥
##괌
##펍
##Σ
##샾
##윱
##₃
##５
##｀
##뺨
##🍣
##━
##귿
##뼛
##ᴬ
##º
##뭅
##톄
##Ｄ
##붇
##꽹
##믓
##͡
##옘
##뤽
##∨
##📍
##🤬
##츙
##🙉
##잴
##빳
##￥
##휜
##🎀
##꺾
##귈
##꿰
##쇽
##쾡
##쿈
##닻
##א
##짊
##땔
##➌
##팹
##⒞
##⑶
##📚
##쏨
##С
##К
##◑
##갛
##폄
##４
##셤
##탰
##닳
##큔
##멥
##ﾉ
##❹
##쾨
##긷
##흩
##Ø
##묽
##⑵
##뽐
##듄
##땁
##웸
##📖
##휙
##𖤐
##홰
##😐
##곯
##겊
##Ō
##🥛
##☏
##낡
##✿
##풂
##ʕ
##횽
##뗐
##갉
##쫙
##뭍
##◾
##땋
##ʃ
##▪
##✧
##좇
##🌈
##Ü
##ⅰ
##닢
##잦
##뷜
##￣
##갗
##📷
##┼
##꿋
##ⓑ
##Ⅴ
##윷
##＄
##줴
##Á
##쌘
##▸
##옉
##√
##쾰
##⑮
##굇
##Ⅶ
##먜
##Н
##컫
##옭
##Л
##📌
##툇
##촥
##̩
##❛
##⑪
##㉡
##㉤
##㉥
##뵀
##찧
##븀
##힉
##얕
##괵
##돝
##튄
##̥
##봬
##쭙
##ⓔ
##넋
##◐
##₩
##훑
##ʔ
##껐
##꼍
##뭥
##Κ
##Λ
##얜
##꽐
##٩
##ư
##３
##ⓒ
##죈
##떫
##숌
##쥑
##🔸
##Φ
##삵
##쏩
##옅
##⒝
##귓
##뙈
##겝
##∠
##⑸
##У
##̷
##⒜
##㈏
##㈑
##６
##좍
##∧
##섣
##끙
##̣
##ⅱ
##쐈
##๑
##㉮
##묏
##▨
##뉩
##윾
##콱
##휑
##퐝
##Ú
##엷
##쇳
##쵝
##뀝
##꿴
##◉
##▫
##똠
##섕
##벧
##⋮
##욀
##̫
##Ⓐ
##ⓐ
##ᄏ
##˘
##㉢
##∴
##├
##㈎
##큽
##⑭
##┌
##ⓓ
##궨
##❶
##휨
##뙤
##⑲
##┬
##뙇
##읊
##젋
##룁
##㉱
##꿎
##➍
##묠
##㎗
##띈
##￭
##➜
##휭
##々
##㈔
##뭡
##묀
##↕
##몆
##➋
##넒
##Х
##띌
##✴
##덖
##걘
##☑
##∷
##└
##홱
##짦
##퀭
##뵘
##❸
##죗
##➊
##ⅲ
##❷
##꾐
##좥
##✽
##Đ
##∘
##◦
##✓
##㈒
##✚
##띕
##으로
##에서
있다
##이다
##했다
##하는
##하고
##었다
##00
있는
##지만
##니다
##한다
##들이
##에게
20
##까지
##적인
##면서
사람
##하게
##다는
##에는
##라고
##적으로
19
것이
때문
##부터
##들은
한다
201
대한
##는데
##라는
아니
우리
그러
##하기
##습니다
##리고
##들의
것이다
##해서
##았다
10
##였다
##하다
생각
한국
지난
하는
경우
자신
##하여
##하지
##기를
##다고
200
##들을
##에서는
들어
같은
위해
##으며
##er
것으로
##이나
때문에
했다
것은
아이
문제
##대로
그런
##에도
다른
##ㅋㅋ
##지는
##리는
하나
##ng
##보다
그리고
함께
##하면
따라
말했다
##리를
사용
##렇게
하지만
기자
이상
시작
사실
##FF
정도
##된다
있었다
있어
하고
통해
##기도
##처럼
가능
것을
이후
지역
##니까
미국
가장
파일
만들
##기에
##지고
##되는
지금
br
##자는
12
정치
이런
그러나
##스트
그래
세계
서울
된다
일본
없다
그는
##장은
##사를
##도록
필요
##하며
11
않는
없는
대표
##해야
##레이
##이었다
##지를
##기가
시간
사회
NA
다시
##장을
아나
프로
모두
관계
##거나
##자가
##이고
##력을
##운서
정부
##이라
아나운서
##on
##th
##으면
많은
관련
##졌다
중국
있었
##성을
##위원
wi
이번
15
대해
모든
상황
교수
이어
위한
아니라
##0년
##들에게
기업
##al
##리가
##주의
##되어
##하면서
이제
진행
사이
##성이
사업
많이
##통령
현재
##학교
100
##기는
##이는
나는
대통령
모습
##가는
다음
특히
##ar
있을
##혔다
30
어떤
##en
##장이
이라고
마음
학생
18
그렇
방송
##회의
그것
##어요
경제
교육
##or
##로운
지원
##입니다
등을
또한
##정을
##an
공격
##다가
##으나
##되고
##화를
##사가
##에서도
국가
연구
이렇게
##그램
##상을
밝혔다
이야
##됐다
자신의
결과
이미
이용
##in
##자의
##렸다
국내
바로
여러
##이라는
중요
당시
돌아
않고
보고
처음
wid
width
이유
##이지
##it
너무
png
199
##되었다
나타
나오
이름
##인이
내가
##어나
좋은
최근
##들과
##라도
국민
16
아무
##겠다
설명
##이라고
다양
기술
의원
##했던
##시아
라고
수도
인간
##자를
##력이
때문이다
전문
##어서
영화
지난해
그래서
어떻
13
##at
그의
##억원
계획
기록
동안
내용
후보
있다는
의미
25
##는다
경기
그녀
##사는
물론
##이트
##이었
##비스
##하였다
되는
보여
14
올해
어떻게
##스타
##시키
사랑
##서는
문화
등장
않은
17
계속
운영
보면
개발
##시간
##기업
##리아
##기로
이를
찾아
선수
##만원
##es
##주는
아닌
최고
##사의
결국
있고
##지가
##식을
역시
게임
만들어
상태
##이며
##스터
효과
일반
새로운
##리스
이러
##르는
##000
대상
어느
않았다
##리에
##가지
##인다
활동
시장
상대
##인의
평가
존재
##랜드
받아
대학
자기
되었다
없이
부분
직접
방법
떨어
##도를
##8년
사건
투자
성공
정보
다양한
##인데
것도
##연구
##제로
##왔다
학교
오늘
##진다
현대
그런데
가지
좋아
##르면
##머니
##운데
라는
그렇게
이에
여성
##부분
북한
전체
결정
##ㅋㅋㅋㅋ
##지도
50
삼성
추가
등의
##라이
어려
##ter
예정
##le
같이
이날
##나라
증가
##5년
##7년
발생
에서
참여
사람이
알려
##치를
##9년
않았
##사업
감독
##므로
##위를
일부
##이가
최대
민주
이러한
여기
작품
기준
조선
부산
기대
##6년
##시에
아직
##이스
##he
##드는
##ic
##했고
변호
가수
제품
자체
수준
개그
가운데
피해
가지고
판매
포함
대구
무엇
관심
##없이
추진
##났다
제공
생산
스타
##om
##도가
##마다
##점을
##4년
준비
##려고
##들도
이것
##해서는
정말
##치는
되어
##회를
중심
높은
##2년
구성
없었다
##전을
말을
도시
국제
##인지
하지
자유
더욱
인터
주장
얼마
요구
이해
대부분
영향
지나
발표
나온
##시장
있는데
##다면
가격
21
생활
정치인
##is
##스를
##음을
일이
##원이
상당
경쟁
등이
##명을
확인
##스로
기본
##전히
jp
매우
서비스
전국
따르면
##도로
이라
24
##대를
아니다
친구
##ou
배우
##명이
##3년
##원을
경찰
과정
##교육
금융
##ing
선택
얼굴
자연
##ac
있으며
언론
마련
정책
##수를
역할
지방
또는
시즌
조금
198
##론가
22
올라
##거리
jpg
##동안
##인을
이루
개그맨
이는
크게
환경
##지막
가족
거의
으로
있다고
않는다
##밖에
시민
해당
##전에
살아
분류
40
##었던
있습니다
##인가
변호사
##아요
##시는
##지역
##1년
관계자는
##동을
먼저
한편
만큼
##린다
분석
##스의
아버
##자로
과학
##리즈
##인은
역사
##제를
자동
당신
##ed
##센터
만나
지적
고객
##하자
마지막
##합니다
##물을
##었고
##스는
않을
##의를
강화
활용
정신
보인다
23
##수가
기존
프로그램
##명의
산업
앞으로
하면
개인
있지만
##px
##려는
조사
모습을
##대의
서로
##정이
##원의
##장의
선거
##은행
있도록
##am
##et
하루
강조
##되지
소비
현실
그냥
나라
##상이
유지
알고
##스가
##국의
##스템
##대표
주민
##문을
규모
드러
##이를
##ol
##원은
공동
중요한
어린
##트를
##ig
##이어
경험
##선을
이야기
##금을
사람들이
인천
대신
해야
관리
##움을
말이
특별
표현
##ion
제작
내려
##el
##대에
##으니
##한다는
미래
정도로
지속
##부를
성장
##기관
어디
사진
##세요
해결
사고
FFF
##로는
##있는
##마트
있던
##위원회
누구
##릭터
##부는
바람
공개
적용
해외
##리지
##어난
##문화
같다
모르
##정한
과거
기능
##장에서
##안을
다만
우리가
따라서
##산업
비롯
우리는
되고
##임을
##과의
변화
음악
주요
캐릭터
조직
국회의
28
예상
##re
달리
여자
카드
##감을
그가
전망
목표
##아서
건강
26
##st
외국
아주
27
##하지만
경영
그대로
자신이
##계를
구조
##이션
##내는
##가가
##자인
##tern
대한민
상승
ex
##권을
만든
고려
##갔다
##겠다는
방식
##기의
일을
해서
인정
제대로
##했지만
##ite
##하였
분야
노동
##사에
시리즈
방송인
##이지만
자리
##는지
##만큼
##상의
기간
주변
받고
해도
주인
##ad
##nd
##장에
##로서
없어
플레이
갖고
##어가
발견
오후
##세를
##로부터
##나는
확대
발전
위치
##도의
전쟁
인물
##더라도
이동
##했다고
문제가
오는
##리의
광주
안전
##하던
##으로써
##자들이
##스러
##이터
가까
##개월
상품
##가를
##와의
출신
사람은
건설
##느냐
적극
부족
##ternal
움직
##지에
##파트
비교
6월
##이기
기억
집중
됐다
이라는
##보다는
의해
##서를
external
프랑
전략
##hite
있기
차지
비판
##히려
전에
##보고
##FFF
여행
판단
##대가
스스로
사무
운동
각각
그림
설치
##부가
FFFFFF
있어서
4월
때는
오히려
중앙
##르게
##단체
3월
5월
받은
수가
제가
작은
있게
한번
##료를
독일
##ent
순간
##등학교
우선
어머니
어렵
유럽
##지의
이전
##스럽
##디어
전투
##오는
이라며
노력
노래
방문
##어야
인해
##업체
작가
많다
##에선
번째
##하거나
의견
비슷
##경제
불가
##들에
29
진짜
##il
한다는
나가
##치고
대비
않아
9월
7월
##개를
무슨
##도는
##시켜
라이
나서
##학자
가진
##르고
엄마
##냈다
##으로는
형태
##업을
##라마
국회의원
60
##른다
알아
행정
보다
그때
10월
분위
목소
최초
비해
동시에
위험
유명
회사
선생
##부의
##소를
언제
##사회
자동차
아래
##시설
필요한
결혼
8월
12월
않다
등에
못한
남자
197
전혀
들어가
##치가
white
##드를
시스템
확보
##수는
제외
##상에
실제로
사라
전문가
##ki
국회
느낌
##도시
위원
평균
##기술
##as
관광
##지지
##이에
하다
행복
##리로
공간
##했을
글로
힘들
얘기
부담
##더니
##스타그램
##씨는
근데
##하기도
부모
시절
예정이다
##과는
##적이
##식이
반면
##되었
##개발
##대한
역할을
##어도
내년
브랜드
일단
##약을
##이크
##하는데
주는
##이자
검찰
##사자
가져
##성과
분명
개선
충분
##으로서
##주고
관한
보내
##중에
기다
공연
##지로
31
##움이
##하다는
##이드
실시
능력
1월
LG
##BS
##20
##라인
##구를
##우는
##제가
인터넷
마을
##수의
##원에
##비를
##보는
##사와
제시
못하고
이루어
##대는
두고
전통
업무
이와
##그룹
SK
대해서
소개
##랐다
위해서
바라
가는
예산
그리
저는
제1
등으로
요리
정상
##위에
1년
##거든
소속
실제
얼마나
잘못
영향을
마찬
##에서의
대한민국
35
되면
영국
우승
##점이
아마
행동
경우가
보는
선정
쉽게
주인공
##준다
롯데
가능성이
of
공식
모델
##한테
말씀
열린
인사
도입
마찬가지
최종
나와
##화가
책임
##ag
자주
그럼
받았다
##oo
11월
지도
수밖에
##했다는
##쳤다
##겠다고
##부에
스킬
##리그
앞서
넘어
반대
시간이
좋다
##라면
단순
##너지
##으면서
##ch
##한다고
##관리
핵심
##격을
##운동
조성
엄청
대회
합니다
출시
감소
##수록
사실을
글로벌
##물이
##학과
따른
참가
연결
하며
수출
수익
방향
공급
이게
영업
정확
각종
##성은
2월
##프트
매출
보호
적이
업체
속에서
이뤄
시작했다
우려
대전
##일부터
##겠습니다
##적을
통합
출연
스마트
the
##0년대
##달러
혹은
##인트
##정은
##생활
##스크
논란
아파트
그것은
모양
나오는
나무
##포츠
주로
당연
문제를
##어를
만에
회복
아름
하여
##원에서
##만이
##하도록
##같은
##자기
##운드
##개의
강력
##리카
개최
대상으로
면서
##일에
##자와
오래
##어로
진출
보니
##아가
반응
이곳
##환경
시행
프리
##관이
그동안
차량
직원
##사로
##성의
설명했다
000
사람들은
##려면
##일까지
##예요
힘을
거래
##경기
민주당
##네요
마법
##회가
##롭게
언급
드라마
달라
젊은
##성에
사망
소설
##ur
여전히
TV
##시키는
속에
##학생
##이란
##장과
##평론가
특징
불구
계획이다
##어들
##디오
이야기를
196
70
제기
제주
있었던
대형
느끼
##하기로
하는데
상당히
은행
실패
##였던
##분류
##하다고
희망
되었
우리나라
원래
보통
남아
러시아
##장으로
스트
없을
굉장
안정
##림픽
##ay
중소
조건
##만을
##되면서
비용
in
##분이
선발
예술
주목
지하
하늘
참석
못했다
##자들은
제2
##50
##ow
있지
##자들의
##드시
것처럼
타이
##구나
담당
##번째
그래도
##없는
지지
##했으며
##두고
##심을
이끌
개념
프랑스
##정에
이벤
사례
광고
아침
##구가
##동산
##간의
경기도
이하
st
고민
##us
어려운
500
##어진
##관계
하면서
받는
##단을
지켜
안에
##웠다
없고
##정책
하기
자세
선보
가능한
돈을
##했는데
기타
요즘
수는
본격
##보면
##에게는
중심으로
##시킨
##위가
처리
남편
##함을
치료
##관은
불과
과정에서
소리
일어나
대체
설립
80
지난달
구체
구축
높아
##사람
혼자
##리기
##관을
##원으로
##대학
되지
자신을
훨씬
##igh
받을
생각이
나온다
부정
오른
##겠지만
##일보
##겼다
300
제한
감사
##되면
##습니까
가슴
참고
주택
인제
오전
그녀는
##이라도
##같이
싶은
##해도
말한다
##조차
대응
##이의
##상은
##문에
굉장히
나를
월드
문제는
공공
인식
##위는
##지원
위해서는
생각을
종사자
신경
com
장기
축구
방어
반드시
가정
다르
행사
보였다
##이면
장면
일으
이다
##학년
##누리
##일을
2년
반영
교통
##기와
항상
##도에
의사
##수한
인생
정부가
완전히
청와
음식
없다는
목차
아시아
##감이
##량이
##구요
##체를
##자리
레이
논의
유일
만드는
보이는
타고
##시가
사는
단계
##10
정당
wiki
##하라
시청
이때
신청
##거든요
##차를
그를
시간을
2015년
울산
##스러운
계약
##스코
관심을
시설
##소년
사회적
##았던
최소
확실
전달
마음을
32
수행
##정보
위에
##님이
입장
평론가
3년
종합
##량을
##시의
보험
대중
주고
##으로부터
대해서는
것에
사람을
##대회
##기고
것이라고
수입
경남
##분에
##민주
더불
파악
여름
가입
마치
바뀌
##BC
작업
이들은
바이
심리
절대
##ot
성과
점을
들고
건물
##다운
##만의
불구하고
그들은
독립
사람의
갑자기
수요
영어
##전자
만약
##듯이
2014년
문학
부동산
##간에
##아야
더불어
여기서
나의
##놓고
체험
##하겠다
재미
##ㅠㅠ
##잖아요
##리어
##적이고
##구의
##섰다
기반
빠져
하나의
이상의
사실상
##간다
구매
2012년
##세대
##율이
손을
##지요
기관
것입니다
그게
가능하다
기초
##레스
##ight
연속
지금까지
##니아
전시
##30
새누리
미국의
없었
##지와
전환
보도
성격
2차
놓고
##em
훈련
##신을
살펴
불러
것과
##이기도
버스
단체
##군의
청년
##나무
인도
##나가
##조사
소재
이들
협력
우리의
기획
못하는
먹고
불안
##id
##실을
했지만
거야
아내
보유
1만
스토
가르
씨는
강조했다
##규모
2016년
변경
지급
이름을
동일
##있다
다니
##계의
사람들
전기
2010년
직장
민족
주식
요청
##전에서
스포츠
종교
약속
##세가
애니
##스럽게
##이야
##내고
##ra
언론인
##우스
##고를
둘러
##리와
수상
그룹
라며
앞에
##위로
의료
새누리당
의원은
리그
##분을
##대학교
##주를
##트가
필요가
##ro
몸을
##세기
하이
왔다
것이었다
검토
거기
강한
이유는
##상으로
공부
떠나
##제의
##품을
여기에
졸업
##근혜
##문이
##단의
해석
지배
##이라면
대답
2013년
##성화
##했습니다
한다고
장애
##선거
멤버
##ul
않으면
비슷한
시험
프로젝
##행을
그것을
달러
##자에
##프로
대표는
##트로
그러니까
##시켰
후반
##드가
##버스
##비가
이거
나타났다
##정부
밝혀
거쳐
##든지
달려
접근
취업
현지
빨리
중에
##화의
상황에서
##일이
예를
나왔다
##im
통한
나머
2011년
##리오
##계획
##ation
##iv
지키
했던
##한다면
시대
차례
그러면
눈에
도로
국정
항공
수사
박근혜
##무원
분양
이사
추천
36
##드의
##전이
필요하다
잠시
갈등
고용
불가능
겨울
##ec
정부의
사이에
##소가
##론을
##력은
나누
##회는
생각해
##법을
아이템
##과학
경우에는
경북
##산을
내부
그녀의
하락
##명은
최고의
슈퍼
아니면
지식
형성
##제는
내용을
전해
어린이
##체가
하였다
##우고
##님의
##어버
눈을
##단이
1일
##까요
걱정
##질을
##시고
심각
고통
가서
유리
초반
시사
##가의
##선수
특수
##지면서
바다
##전문
##었는데
나타나
있다면
##연합
다가
45
바탕
그들의
2008년
##화된
만족
정리
측면
##트는
전반
##드로
벌어
레벨
쓰는
스페
다음과
##리며
##지어
대선
홍보
가치
민간
매일
##만에
재판
유치
대통령이
The
자본
제일
##률이
그리스
##금융
듣고
##투자
야구
2017년
지정
파괴
남북
합의
영상
무기
시도
누가
아프
##주택
##점에서
조합
##정으로
나왔
##으므로
기념
2018년
게다가
##보험
정부는
##ia
##해주
##씨가
##계가
인간의
이것은
군사
10년
배경
전화
##um
##시오
소유
한국의
전용
##oc
##심히
##정의
있어요
##방송
저녁
##말로
##지게
하게
##난다
이유로
##하려는
브라
도전
바꾸
전자
대책
마무
그것이
2009년
##활동
##시를
도움이
##자에게
195
있으면
33
##지기
##함으로써
##선이
낮은
자리를
처음으로
명의
전했다
##인들이
달성
##인과
통일
앞에서
194
지구
##와는
불법
##적이다
에너지
##히는
##권의
일상
##수로
자체가
작년
확정
잡아
제조
##거래
포기
일은
중인
이르
##ack
##렀다
방침
아들
##니스
길을
##별로
신뢰
상담
비중
이탈
##건설
느껴
지금은
##11
끝나
등록
괜찮
##점으로
이란
것이라는
완성
중소기업
회의
##해진
출발
승리
오랜
이익
##건을
##케팅
St
통과
특정
약간
발언
도착
##까지는
인터뷰
외교
건축
##만으로
##종의
자료
##텐츠
새로
끌어
교사
##이었던
기사
##더라
##으니까
##세계
디자인
사태
##되기
##에만
##ㅋㅋㅋㅋㅋㅋㅋㅋ
마이
전부
시각
점에서
##포터
충분히
받았
편집
##트의
대출
회장
정의
##회사
세월
말고
정보를
만한
나이
신문
오브
맞아
##역을
대화
##주가
##마을
덧붙
근거
남성
##구는
##진을
문서
##로를
리더
연기
생명
개요
선물
대통령은
##퓨터
내놓
의혹
##만한
##공사
맞는
했는데
포인트
34
거예요
화장
늘어
혐의
촬영
아니고
##력과
평소
온라인
##og
90
##지면
머리
아버지
강력한
가면
종류
아무리
원칙
소통
보여주
연출
과학과
인근
나도
##력의
설정
메이
때마다
근무
강원
ht
##ir
자랑
코스
효과를
부여
범죄
가득
상대로
선생님
##위의
##점은
죽음
##시킬
##인으로
##다니
##요일
주도
유통
초기
3일
일본의
##당한
많아
의한
##되며
제안
상징
활동을
##ut
열심히
물리
보이
##군이
거부
00
후에
혁신
5년
##군요
투입
사상
책을
향해
##전의
알려졌다
재정
##명으로
자녀
##스와
전남
제도
단지
아예
보기
38
##는가
직업
향후
상황이
그렇죠
##평가
청소년
##조건
##거운
##이익
외국인
##하나
일어
주문
##금이
##체의
##연구소
##증을
사업을
대로
일정
창조
그럴
없다고
돌아가
동물
투표
피부
밖에
사용하는
2007년
주의
무시
개혁
관련된
하자
##단은
컴퓨터
##공항
그랬
보수
##통신
##기간
##술을
수원
나머지
교수는
심지어
1000
진행자
여론
##방을
점점
규정
##분기
비롯한
학습
블랙
##받은
인한
##들어
bl
올려
##형을
완전
맞춰
스테
선언
스마트폰
중이다
들었다
크리스
꾸준
있어야
##많은
집에
저희
현장
정치적
##당이
국민의
##안이
강남
##들로
미리
##했으나
이벤트
##러스
##호를
##차가
경우도
청와대
##증권
1차
말하는
고양
반복
##보니
언어
##문학자
##마저
##워크
and
원하는
##을까
홈페
작용
마음이
인상
세상
제출
##해를
개정
##회에
마무리
계열
##율을
##연구가
##단계
펼쳐
##os
##ue
높다
제3
##유의
비밀
평화
##목을
##일까
##반기
신규
##yle
싶다
몬스터
##나마
대부분의
소득
##길을
의식
##un
그린
고개를
영웅
다이
##군은
뛰어
호텔
구입
KT
우주
##피언
##설위원
##시키고
기준으로
##메이션
생긴
아르
관심이
##하려
수많은
아는
데뷔
##주부
태양
중단
앞두고
##리게
##ub
##고는
전업
상황을
##었지만
벗어나
37
커피
뒤에
비롯해
5일
##스토
마케팅
도와
매년
발매
베이
등은
수용
##본부
##티브
가까운
결과를
요리연구가
무엇보다
##선의
사용할
마찬가지로
##받는
소환
##보자
때까지
##쪽으로
별로
쏟아
아닐
들여
바탕으로
차별
##게임
당선
배치
##진이
한나라
조정
올림픽
사장
##무를
동료
엄청난
신고
2019년
당연히
경우는
놀라
대통령의
##권이
부르
##이로
근로
그만
이른
간단
##ment
기회를
안타
알게
##계에
##리면
##구조
통해서
뿐만
##80
출전
##경을
덕분에
##if
누군
목적
##화에
##사람들
사실은
##께서
채용
장관
문을
대단
##치지
##카드
빠른
##TV
세종
##국이
##복지
끝에
않게
성능
철저
##40
실천
인수
소녀
깊은
##식으로
적절
10일
모르는
활성화
다소
폭발
##당의
전업주부
상위
차이가
드래
불편
먹는
피해를
KBS
장소
##재를
##문학
##인물
동아
##비아
이처럼
1위
창업
##제에
인기
획득
##회에서
앉아
사람들의
작성
적은
##ce
주장했다
##바일
말에
##음이
모습이
대기업
받아들
말이다
구속
위협
실험
이론
##재인
아름다운
to
스타일
효과가
통신
좋아하는
보장
도움을
정도의
추정
겁니다
따로
style
준다
리포터
2017
살고
비행
##아버
##받고
애니메이션
##분의
삶의
공정
긍정
보이지
시작한
쓰고
##ml
삶을
55
15일
입장을
외부
신용
193
최초로
##주시
맛있
##ach
##당은
이건
그렇지
나올
뭔가
##ww
완벽
회원
기울
##발전
20일
유닛
##소득
##and
말해
그걸
##었습니다
데미
듯한
법률
디지
##점에
##이블
In
##메라
##ine
##플레이
흔들
##서비스
전개
나선
##잖아
남은
집단
##뿐만
##시대
##가고
##안에
##시즌
카페
2일
400
과학과사람들
##르크
중에서
##면서도
토론
##구에
결코
아니었다
유저
뉴욕
보이고
국방
39
중간
사과
주말
아빠
생존
##비는
있었고
갖추
혜택
##문의
www
돌려
##가락
##원과
제거
됩니다
1천
허용
명이
##TA
수정
무료
7일
##도와
##키는
그곳
마침
##스티
능력을
##가에
영역
##ea
복지
설계
42
개의
그거
부탁
4일
골프
국기
이용해
##생을
늘어나
우수
공유
의견을
노조
유명한
휴대
걸쳐
측은
##심이
기록했다
때도
아닌가
떠올
##12
예비
챔피언
연계
정규
서비스를
박사
##치로
할인
##학을
과연
이외
202
월드컵
힘든
셈이다
감독은
##보았다
두려
상호
덧붙였다
과정을
모바일
싶어
##여서
##협회
##조선
##했기
75
바닥
입을
##주로
##다른
##력으로
홈페이지
이것이
나오고
2018
##적으로는
150
성적
공무원
절반
##억원을
거죠
얘기를
극복
##관광
체결
##이도
지적했다
유니
##서관
기여
##arg
얼굴을
먹을
효율
데이터
대표적인
이탈리아
##해요
지상
##ers
방식으로
것인가
위로
##하려고
상처
생각하는
교과
패배
프로젝트
나중에
증거
의미를
수록
검은
##라운드
##의원
##에요
##60
식으로
관객
##구역
가을
경향
##질이
앨범
넘는
8일
##사고
비난
문재인
연습
2006년
이제는
걸어
수비
##기지
방법을
구분
##였고
그건
지휘
##화는
##단지
##정치
실현
수도권
##하니
찾는
Ch
관계를
참조
생각한다
중국의
아니냐
##트워크
##율은
##호가
받지
어찌
48
특별한
12일
3개
상상
##이즈
##ess
MBC
9일
##란다
##어져
02
분노
흘러
그러한
회장은
오르
활약
##하고자
##하겠다는
요소
소리를
##사에서
제목
창출
흐름
곳에
어울
##경영
헌법
##km
##ie
25일
11일
그렇다면
글을
할머니
he
그들이
열어
다루
##서의
##신이
명령
14일
6일
##면을
들어서
##op
사전
금지
지역의
16일
패션
4년
##제품
기계
##시켰다
힘이
기업의
##마자
##미를
유사
##았고
서울시
##부모
##함이
2000
까지
##19
html
차단
##뮤니
##부터는
자산
안에서
확산
본다
아직도
임대
국토
말은
##경찰
이명
##ap
빠르게
대규모
##대에서
물어
##것도
역대
국립
##15
17일
##치게
어렵다
왜냐
가끔
##시로
했고
디자
명칭
특성
맞추
위하여
거짓
어쩌
##스에
at
##체육
어깨
##보를
13일
좋지
22일
##레이드
##력에
##바로
앵커
43
18일
대학교
##었을
##자들
##진은
거리
##석이
직장인
미술
운전
27일
다행
##나게
교체
얻을
성우
대변
일이다
점이
노선
가까이
그저
반발
23일
위반
21일
##상담
원내
##병원
##프라
##낸다
만난
엘리
19일
중요하다
26일
못할
메시
되는데
그려
감안
##지방
위치한
가로
상관
##률을
모른다
1인
조선일보
24일
65
##예술
모아
직후
있었는데
공포
##노동
이번에
연장
연예
##물의
말할
사항
시기
##명에
따뜻
김영
고향
전망이다
의무
명예
편의
등급
##하다가
도망
궁금
##성도
뛰어난
실질
##항공
잡고
192
스피
수업
만들었다
##자치
자금
부문
##자들에게
47
당장
28일
뿐이다
어떠
전년
##서가
장비
대하여
미디어
열고
해주
##면에
기능을
##인들의
로마
##석을
희생
나름
##히고
꾸준히
필수
##부와
수학
이달
기술을
조용
##pl
가게
이내
그만큼
##교통
##조를
확장
##ER
##단에
크다
예방
인구
보스
쓰러
##판을
미사
있는지
44
와서
##ov
추구
아쉬
##자들을
##나이
디지털
연간
발휘
의심
죽은
##중한
떨어진
적극적으로
##자동
관련해
고급
##00만
진입
##리티
베트
판결
언제나
##야말로
선진
가고
둘째
지속적으로
##차는
콘텐츠
##어는
출마
자원
##ak
##럼프
뉴스
##드러
동생
제품을
##임이
##이버
발사
##ab
그에
이유가
##라의
03
##하시
머리를
못해
이로
##라스
드래곤
##표를
##의회
2005년
복잡
IT
뜻을
##명한
지닌
##지에서
##류를
등장인물
자극
임금
##안전
##과정
한반
##속도로
아이돌
계산
##ard
##argin
클래
##군을
##당을
하나로
##수도
##만은
그다
일자리
센터
##화에서
만들고
##시스템
##호는
##지구
margin
수술
쉽지
입고
##실에서
공사
비록
나섰다
열리는
부인
체계
그나마
떨어져
규제
다섯
고정
49
근본
52
금액
멀리
평가를
질문
##나요
씨가
46
여러분
표시
##성장
예측
포함한
입주
거듭
FC
충격
##려서
##독교
근처
보조
사실이
##od
##하면서도
or
많았다
##가로
주부
창원
01
크로
##IA
있겠
##승을
북한의
된다는
다이어
이들이
##서에
방안을
##권에
##주년
훌륭
규모의
##국은
아무런
한마
대기
##음에도
새벽
##부장
부활
##조합
2016
벌써
물었다
집행
연합
화려
모여
곳이
##학적
##전은
마스터
철도
##회담
패턴
운용
한정
물러
사람들을
05
##이에요
기존의
##전략
##화와
##ding
##각을
##바이
##인에
##사항
그녀가
베트남
너무나
번역
공격을
손에
결승
들려
최대한
저항
##대책
##공원
있으나
##해졌다
최저
보상
이래
##어의
##ood
##인들은
##조의
검사
구간
소송
진보
자격
30일
소년
지원을
##란드
기분
것이고
##등급
분리
파워
##량은
##기까지
길이
세상을
시사평론가
정체
항목
있으니
계획을
##비용
쪽으로
##ED
41
생태
##국을
##식은
원을
##화점
병원
##씨의
##쪽에
##시티
무려
인기를
##되었고
올랐다
내세
논란이
상대적으로
마음에
##드리
##연을
갔다
있었지만
설득
##상품
##시다
집을
건너
지자
##부로
복귀
그에게
거주
##워서
날아
탄생
##동이
##전거
생겨
##피스
단순히
등과
##제도
소장
안내
블루
비상
머물
취급
바꿔
KB
##메달
오늘날
여유
##영화
##라가
단일
사랑을
분명히
##라서
##연구원
트럼프
2만
2개
프로그램을
부분이
누구나
한화
##타를
자리에
새롭게
##청은
제외한
프리미
##스테
##미가
##치의
이승
##파크
##하였고
##프를
##시민
책임을
##락을
##로가
두산
같아요
##리스트
대사
물건
상황에
##ity
지니
방안
##이와
이들의
입학
##전쟁
애플
전형
##션을
##음에
거기에
없지만
##해져
무너
무한
유일한
업계
운행
얻어
2004년
등에서
풀어
줄어들
발행
충남
내게
내용이
꿈을
관광객
##가구
없습니다
등장하는
결합
말았다
for
대우
유형
동의
목숨
옛날
바람에
나눠
출판
##보기
커뮤니
자율
##식의
이름이
##케이션
눈이
무역
유도
소리가
대법
##ST
##국제
모두가
나아가
##님은
##치기
관람
떠오
##리한
조작
이재
감정
연주
##실에
진정한
가야
경기를
##감독
##량의
라인
위기
##세의
기독교
카메라
29일
##로의
아닙
의미가
옮겨
하더라도
##공업
재산
있을까
##동의
##차례
혼란
알았
신체
물을
후보는
##온다
김정
몰아
오픈
때가
##나다
##모를
공통
있음을
짧은
저지
##졌고
고등학교
##지자
att
같았다
사람들에게
뒤로
행위
간의
원작
트위
##70
정기
인류
4개
메뉴
##이브
쇼핑
초대
모집
상태에서
세워
이웃
동원
도쿄
증권
##석은
분위기
알려져
갖춘
##금은
상당한
스토리
##ct
논설위원
##직을
변화를
협의
보자
영혼
ㅋㅋㅋ
육성
##직한
##ate
##오고
##ist
은퇴
##친다
당신이
무조건
돌파
##작용
혹시
심각한
59
가리
가치를
1회
형태로
않도록
내고
싫어
##이니
##관의
##소에
자리에서
수능
##기준
어른
##est
##25
완료
조심
##호선
이명박
높이
선호
##중앙
아까
엠씨
주차
나쁜
취임
해양
2015
##16
서서
포항
##리라
동네
##래도
2019
##정도
5개
기회
점검
하나가
종목
나갈
생각하고
공격력
봉사
전설
아우
편이다
##대와
종료
CE
그날
##효과
##아이
향상
노인
##더라고
##선에
##률은
채권
99
처벌
작곡
점이다
다르다
만화
느낄
흔히
##진의
하나는
##13
##놓은
4대
응답
최초의
어쨌
56
##ell
주력
되기
못한다
53
강제
점은
내는
##신의
지하철
##식에
펀드
부상
구체적인
압박
넣어
발굴
체력
곳곳
때부터
##냐고
그러므로
이기
붉은
##achment
64
국무
개봉
옆에
##받아
국문학자
프레
net
도덕
54
그렇다고
합리
##14
attachment
##18
배출
친환경
삼성전
##르트
##만원을
자전거
##되어야
##망을
개별
인공
수립
##cm
언니
보아
생기
##올림픽
불리는
1억
보여주는
에피
##실이
##에게서
말도
선배
어둠
공항
2000년
자기가
왜냐하면
##증이
주지
##시마
##민의
전력
##위원장
발달
투수
내에
스카
아이가
대학생
1조
height
##av
식품
##버린
이른바
##시와
##들이다
아무도
##가와
집에서
im
단독
##해가
대해서도
예상된다
미니
학부모
전면
##기만
일찍
##발을
광역
##에게도
점차
로봇
##었다고
네트워크
농업
발동
##다란
받는다
다녀
##이너
해소
한나라당
방침이다
치열
학생들이
반대로
##성으로
##ew
채널
거대한
##끄러
이걸
##식품
시내
06
영원
내일
마리
##로그
##방의
##수에
주거
내에서
뮤지
마주
##국에
싸움
가격이
##ri
2002년
영양
여야
잠깐
성과를
아이들이
개편
사람도
경제적
복합
Lv
신설
출범
공장
이끌어
내용은
##까지도
만들기
현상
자살
##수와
문제에
홈런
##책을
근대
09
본인
임명
##동에
했습니다
##연히
목록
##트에
##힌다
##지며
냄새
보건
대한민국의
예전
10px
##FA
이스
에어
알려진
##다시
위의
참고로
장난
끊임
첫째
몸이
올라가
##복을
##받을
무엇을
활발
##재가
##짜리
##이던
공천
끝난
##이한
안녕
성향
권한
##상태
무서
담배
##봐야
red
##특별
지역에
임시
네네
겨우
초등학교
##님을
정권
##art
##아의
다르게
저도
오빠
없어서
키워
그것도
57
##NS
스위
##ep
소비자
노력을
실행
수수
아울
개입
어제
##였지만
##학의
네가
##업계
2003년
차원에서
의원이
대결
##⠀⠀
파이
외에도
표준
##개혁
정작
들이
추가로
##리면서
##하이
120
##함에
장착
노무
속도
##공간
개막
이슈
##물로
돈이
##미터
포켓
##안은
##번에
##내기
04
생활을
##시면
즐길
##ign
기업이
노출
##호의
받아들이
##소는
무게
사이의
##사건
85
컬러
페이스
곳에서
발생한
##ord
##화로
빼앗
##여행
공감
##바람
매달
고위
줄어
##소한
수십
없었던
##기자
##사들이
##하신
좋을
녹색
190
비교적
##회견
이중
부족한
어떠한
아프리카
풍부
그니까
김성
08
조언
민주주의
##가족
##all
말한
##거리는
##실로
홍콩
끝까지
한마디
사진을
것인지
지금도
당신은
아카
##제한
##개로
타입
깨끗
##계약
2014
##실한
##조가
##IC
라디오
##데요
의존
##셨다
전공
검색
체육
합격
##활동을
일어난
아무것도
않지만
밖으로
58
일에
국가대표
##age
##준비
건립
말로
명확
##했어요
않을까
스크
어쩔
##방에
굳이
##고기
발표했다
##형이
평범
연극
매각
##관에
##법이
##십시오
##속에
인권
평생
##우가
이천
##법은
공중
그러자
##고가
07
##포를
위에서
##자산
일반적으로
##CC
워낙
오랫
공산
##타임
##관에서
테러
남녀
##방이
압도
뒤를
##철도
총선
촉구
능력이
##세에
##제와
폐지
저렴
소련
곳은
##지사
목표로
##해주는
##법에
당초
고교
kr
##끼리
##집을
##조정
##시험
에피소
브라질
재료
##하겠다고
사기
실적
##ev
긴장
##신문
시원
제공하는
이용한
파트
##하세요
에너
##iz
히로
##17
확실히
혐의로
경험을
외에
안보
사건을
동반
발표한
사장은
원내대표
##ill
차이
##소리
황금
보지
##사인
포스코
받게
같아
##전으로
목소리가
부분을
공략
가능성을
기부
PC
교육을
내내
같습니다
창의
정비
현재의
스파
작품을
아이디어
##사무
테마
##체는
기자회견
묘사
아이를
##24
##주에
몸에
꺼내
몰려
쉬운
##보다도
정확한
이야기가
무릎
대폭
ㅎㅎ
방영
5px
행동을
파티
일제
싱글
아동
##로드
물질
##안의
독특
##ound
##미널
66
입은
없기
문제로
히어로
레드
성남
고대
밀어
##봤다
종종
##명과
클럽
조절
주관
커다란
느낌이
##리트
##통합
600
적을
전날
##라우
잠재
속으로
소화
거두
자꾸
방법이
##ame
공화
##세는
보여준다
##었어요
기회가
##말을
##고등학교
하던
대표팀
수준의
서울대
살인
##our
th
당신의
오랫동안
에이
사건이
적합
주어
옷을
##답니다
비정
정책을
##테크
사이에서
살짝
다름
##보호
통제
소모
##선은
방향으로
경계
반응을
때에는
경우에
부처
탈출
마지막으로
시는
몇몇
##산물
텔레
전북
사내
전화를
##려야
세상에
교회
##치에
공모
관찰
##와서
출생
##자도
결론
단순한
않기
사회의
대립
바란다
##당에
##비의
30분
##스키
삼성전자
장르
##mm
##야구
본래
##세로
끌고
편안
들은
##소의
분위기를
충돌
##90
##스케
조각
##로우
보급
사냥
##ont
##후보
##겠어요
##기능
들어간
개방
##일러
##가능
세월호
의하면
##먼트
##자금
##겠지
##았지만
기원
부회
##줬다
담은
주었다
가난
하겠다
한다면
##란히
##한국
##모델
아울러
것이며
이미지
보았다
##트리
##바닥
소프트
##48
그녀를
관계가
채택
제국
##르지
마침내
천안
강의
작중
않아도
오리
없게
##터를
##래프트
SBS
데려
아니지만
##자원
생각했다
바른
##로서의
중반
일종의
##EC
##병을
##하려면
변신
##는데요
대처
##이닝
후보가
부품
미안
##기록
북한이
##세트
비즈
익숙
데다
##니어
할아버
파견
살해
##설을
##직원
##시킨다
그렇지만
느꼈
들어오
즉시
과학과사람들대표
조금씩
기아
al
##공을
##전과
한글
권력
상태로
시장은
무대
본인이
##이었고
유튜
##스카
##대상
어쨌든
##경이
##디언
FF
초청
화학
결과가
스페인
경찰은
아무래도
보낸
##gr
취소
63
자세한
##장애
독자
넓은
다음에
적어도
##패를
아시
답변
##리다
##건축
일자
6개월
##진흥
지시
##훈련
##기구
##물에
런던
##해지는
늘어난
상황이다
합류
보니까
포켓몬
1개
등도
승리를
##ud
##국가
얻은
되돌
##미는
만남
IP
상업
선고
적지
##마를
##조는
수영
##한데
구성된
열었다
처음에는
철학
고구
##인에게
그러면서
박정
협상
전부터
즐거
##TE
##종합
내지
것이라
이성
##하자면
현재는
후원
##레벨
##보며
된다고
심사
에게
미친
없애
이상을
시장을
그와
이름은
인간이
며칠
일도
##크를
##ort
##해진다
##외로
##해지고
영입
차를
추억
2천
훌륭한
타격
진화
운영하는
##마의
51
##비에
##단과
이번에는
##단으로
밝힌
메인
재능
##너스
그야말로
그럼에도
##생산
주제로
범위
이적
##탄을
##결과
했다고
자신에게
이름으로
시작으로
시장에
##로도
맞춤
확인할
경상
목표를
사유
에서는
깊이
중학교
서양
이정
##000원
시장의
##하의
동양
##권은
##능력
유엔
##하지는
##느라
창작
역사를
통상
밀려
트리
얼굴이
프리미엄
##ive
자치
곧바로
탓에
갖는
헤어
##연금
##가격
방법으로
95
사람에게
케이
연말
교환
인재
원자
반도
본격적으로
##ip
##트라
##자동차
개인의
##년간
##성한
##광역
##웨이
호흡
많고
이상이
무리
##주일
만들어진
동일한
CEO
잘못된
찾을
보완
적응
깨달
선박
만일
동기
공약
62
캐나다
##버렸다
게임을
육아
대리
투쟁
봐야
##개가
방법은
co
무엇인가
191
시나
자연스럽게
##액을
좌우
서구
뒤집
##져서
불교
사랑하는
속성
##감한
오늘은
걸려
##마가
시간에
생물
##피아
1위를
특유의
조기
##해온
##협력
이것을
근육
쓰레
대미
석유
최강
만날
##ant
대표가
믿고
##크로
대상이
무렵
김태
피아
똑같은
모으
유기
##ob
긴급
일행
여겨
##주민
##씨를
##받았다
대화를
자료를
정착
모자
무엇이
취득
집으로
##ff
##연이
올리
들어가는
##사랑
이전에
봐도
##터리
현금
화가
증명
##라리
달아
자네
##ang
의도
재무
##마는
거론
정확히
나아
보면서
예고
가볍
아웃
붙어
않았던
되었고
##데이트
계기로
조사를
##함과
수석
한때
##이었지만
2013
호남
##체에
##액은
250
감염
국가의
곳으로
품질
##웨어
##심의
지역에서
정식
청구
먹어
목적으로
했을
3만
무장
서민
왼쪽
##카오
이용할
스케
음반
##드에
확률
시장이
느낌을
적극적인
호소
쳐다
마르
##가스
2위
손가락
##되자
주소
애초
작업을
경주
올해는
다운
신한
##문은
부르는
시장에서
세대
이틀
객관
기본적으로
연락
이상한
이었다
여담
부대
느낀
하니
##용으로
대장
##이사
##답게
상반기
세계를
공을
해방
있었습니다
##달라고
심리상담
수치
데리고
축소
##청이
감독이
가격은
죽을
단기
##타로
김종
72
정치평론가
##시코
##담을
##리도
거절
낮아
데이
84
한반도
##렸고
##된다는
GS
##았을
하반기
말하고
이르는
##였는데
##토록
가구
2012
진정
캠페
음식을
여수
목소리를
##이상
내리
일반적인
모습으로
형사
호주
화면
간다
부진
한참
2001년
강하게
구현
##심한
마라
##차로
맛이
##산이
경고
##센트
경기에서
시점
나타난
CJ
솔직
손으로
혜택을
앞으로도
부분은
등장한다
이슬
##로소
차가
맞은
##종을
67
맡은
무사
최소한
##더라구요
뮤지컬
무관
##격한
때의
##영은
가깝
##대체
자가
살아남
올렸다
##영상
오직
지금의
관측
##르기
##조직
끊임없이
감독의
웃음
흡수
어디서
최선을
멈추
크고
있는가
빠진
근접
기름
아버지가
토지
원인
수준으로
인하
처음부터
계속해서
##민주당
상장
눈길을
본격적인
##지않
##크래프트
##일리
매력
온갖
소방
2020년
##정과
푸른
보며
##드와
자식
탈락
질문에
##해양
이유를
시작된
싸우
포지
ㅋㅋㅋㅋㅋ
계약을
##키로
않는다는
노래를
완화
##살을
##마스
##가지고
신앙
접촉
어려워
##PG
그렇다
##해질
##물은
##00여
##화학
공직
##으로서의
적절한
진단
##후의
사퇴
인증
드디어
해요
하나를
##산의
천연
##든가
한국은
##처리
들어갔다
배려
충청
되면서
##야마
##법인
방지
##림을
자아
오버
부과
아기
이후에
따뜻한
##령을
방면
##분야
출입
대북
##대출
끝내
##디아
트위터
착용
##주기
##쟁이
68
유일하게
방해
않으
규칙
##22
##감은
오프
변화가
코미
##줘야
##었다는
지어
시작한다
시스템을
갤럭
어려움을
치명
서술
##수수
##000만
##나의
특허
나오지
##브리
어두
##본다
이자
패러
보관
##따라
제공한다
감각
##색을
##여야
조치
회사의
갖게
##IN
이렇
##렸던
마이크
삼국
남겨
고등
칭찬
상세
세트
##체로
사법
##일은
##골을
##았습니다
##상황
##스런
##AN
거라고
담아
타이틀
여부를
사이트
붙잡
##서도
다이어트
깜짝
포함해
##프가
##형의
##군에
교류
법정
미래를
했으나
77
메이저
업그
2회
##구로
행사를
되게
오바
##무는
농촌
인기가
손님
##적의
나에게
##물관
이미지를
뜨거운
그들
점심
##해보
취재
##ON
미세
##더라고요
##기기
영업이익
수집
##하기에
아마도
부하
본질
운동을
SNS
용인
##시키기
최우
환자
##스트를
생각하면
지혜
##판에
시대의
##계는
이나
나가는
시인
##즈의
KIA
선두
행복한
당황
과도
AI
붕괴
##가요
##랫폼
##00만원
맞이
HP
축제
##에서부터
영화를
##영의
화이트
##통을
파리
사로
##우를
매매
역사적
##쇼핑
##스에서
180
술을
마사
여성의
##되었으며
성인
##te
##텔레
유행
##재단
부부
지나치게
매입
##국민
막아
떨어지는
##kg
그들을
##았는데
##타운
##FC
##월드
들을
##사업을
목숨을
듯하다
지향
##위기
마시
너희
##러리
##uby
질병
냈다
##레인
돌아오
보안
맡고
통화
유용
태어나
신선
3차
업데이트
바이오
##긴다
##액이
같은데
76
##악의
신속
자신들의
##연한
클리어
현대차
##시한
Sh
개설
보편
발생하는
오른쪽
맛집
##선으로
신의
##져야
선임
세계의
##경은
##상과
3대
드는
시가
해당하는
##재로
##왕의
종족
만든다
부채
투자를
##나와
##연맹
##연의
일방
신기
의미한다
노무현
유대
직전
응원
##하라고
가만
##ik
널리
올린
우수한
계급
내린
안철
독특한
검증
취약
나라의
Pr
비중이
아이콘
2층
##자고
화려한
정도가
수백
동부
요구하는
vs
##라엘
선출
준비를
정신을
듯이
ruby
##맛집
체포
##공단
인지
##색이
모르고
생각할
몰라
구미
면접
##ef
오토
맞게
##모토
##무역
도달
나면
나쁘
갈수록
탑재
10여
##000억원
##PC
##에서만
들면
김대
##들에게는
엔진
않습니다
##대전
blue
일러
흥미
깨닫
드라이
마감
식사
##십니까
##건이
부딪
인력
콘서
이행
기운
무상
검찰은
건조
에는
##판이
천천
대만
장애인
궁극
무언
##켰다
안으로
기분이
기쁨
팀의
내다
강원도
##보가
없음
제정
텐데
##게요
측정
수리
네이버
자는
혁명
원정
늘었다
##카와
아닙니다
좀더
보인
할지
사용한
상품을
다크
##하기는
##ld
않았지만
넣고
Sp
아니라는
73
것들이
유튜브
회피
##eg
시달
내렸다
##소에서
보존
라이브
##모가
평창
소식을
경험이
분야에서
세계적인
배제
인사를
의견이
이해할
메르
가동
좋고
주최
##기획
##식과
여의
무척
모임
##라를
##비로
금메달
##화하는
저장
존재하는
아닐까
양산
제외하고
##치며
진실
도움
실내
이념
##렸을
##기사
배틀
첨단
갤럭시
했다는
다리
74
모른
사랑의
31일
드러나
고유
##양을
보일
##향을
도대체
문자
88
전세
천천히
의지
않았고
속의
가시
형태의
2배
위대한
어쩌면
야당
타임
##하셨
기소
모습은
상태다
밝히
평범한
편성
이익을
손해
ㅋㅋ
##축구
사실이다
##자마자
인용
대륙
20년
생겼
논리
플라
표기
동작
##AR
달하는
가치가
화장품
사로잡
3개월
Th
미사일
식당
##되기도
문의
이스라엘
##문제
##사이
이주
하나님의
##코리아
##억달러
전략을
식민
게시
의해서
리더십
개통
on
진지
한쪽
모험
세금
곳을
아름다
고맙
##환을
동남
##관과
분위기가
##즈를
미치는
통하여
담긴
개성
막을
플레이어
##미의
고생
한국에
##졌던
소형
다니는
순위
##스탄
일시
##였습니다
FTA
지니고
##교수
스코
융합
김정은
챙겨
##셔서
3D
위안
주기
김해
차지했다
##배우
##라이더
연령
제4
우리에게
분이
포르
넘어서
전주
조종
그러다
##호텔
경기가
국내외
##크가
아들이
아저
날이
##ain
연금
존재한다
정도는
##매를
이혼
##미술
의하여
쓰지
외환
##악한
##형은
##층의
지자체
있으므로
69
유희
것보다
또다시
법무
구글
이어지는
우려가
##돼야
##례를
불가피
플래
질문을
고마
득점
인프라
심한
물이
2010
시대에
예수
##공격
점령
가질
의지를
##영이
멀티
##23
입장에서
에스
아이들
후속
부분에
농민
전사
고전
이들을
총리
좋겠다
배가
모드
뚜렷
비즈니스
##작가
김동
초과
넘게
플랫폼
살려
느끼는
등장한
한미
금리
연방
이십
부드러
귀여
이민
##경쟁
##차에
전문가들은
녀석
시기에
아파
읽어
트렌
치고
하드
Al
##관계를
가벼
코너
못하게
고령
태어
색깔
초등
집안
##동생
##000만원
해운
##안타
부지
선수가
FI
통계
NC
그래요
양성
그렇습니다
지내
사령
결정을
폭력
##adi
##부에서
매장
하나님
집어
도중
공기
시범
간에
악화
##28
도심
열린다
##edia
해군
점유
놓은
##체험
였다
눈물을
맞고
올바
##해왔다
법인
##망이
장점
거는
##소로
한국인
##주지
##원들이
부장
주체
털어
##프는
찾아가
##행정
##아웃
불을
나타나는
미션
뛰어나
##하에
돌아온
급증
아버지의
고기
##면적
북미
침묵
것만
방식을
후배
운영하고
알렉
하다가
1999년
##루를
20대
##즈는
지분
##하러
붙여
눈치
스트레
전후
순수
페이스북
얻고
다들
아가
##절을
##비와
##아파트
연관
최근에는
대체로
1998년
업무를
버전
말라
명을
파트너
신인
아키
##신은
차지하는
언젠
##길이
유발
위원장
##종이
중에는
지방선거
1번
##운영
점도
카드를
엄마가
그러니
일대
지역을
##ong
귀족
부사
발전을
부각
##하였으며
##없다
생성
##데이
##공동
중의
아메
강요
##랍니다
##밀한
보게
##유를
트레이
버리고
하얀
신분
제약
오로
시의
사업에
접수
참석한
듣는
##겠죠
삭제
이리
기록한
##살이
연애
시켜
태어난
방향을
무직
감시
스테이지
팀이
세력
6개
깔끔
맞지
##eb
형제
대다
##만으로도
현행
빨간
뿌리
가라
찾기
Ar
바르
추측
##사이트
##시스
아버지는
##심으로
기반으로
입증
##크의
##겠습니까
고백
거지
향한
오염
##이므로
우리를
##됐고
78
디스
##하므로
우승을
집계
##생활을
화성
바깥
카운
세운
회장이
셋째
축하
##per
때문이었다
충족
형식
충분한
##베이
실무
기록을
10만
##런트
승부
##머리
가스
##립니다
되며
거기서
걸린
학생들의
생각은
전작
##27
골드
부서
법적
불리
##겠어
##주와
##크는
##ark
##억원의
잡은
만났
83
##ver
1997년
##이랑
댓글
you
마치고
##se
##주의적
세계에서
보여주고
상임
말하면
내용의
측면에서
사용한다
빌려
##르의
2011
명품
##달라
폐쇄
##박한
##주인
페르
안철수
공부를
##화한
입시
189
결과는
주제
##ge
활용해
##었으며
하거나
##으려
##디션
뽑아
없으면
우울
유출
연예인
이젠
##수사
##감과
없어요
김현
신입
주장을
지속적인
멋진
##평을
규모가
재활
부담을
예약
막기
##즈가
구체적으로
영남
중에서도
지명
##OR
좋아요
##먹는
10시
여자가
##ry
독서
##절한
##레이션
학원
##분석
합병
##상에서
더블
한계
갖추고
##하여야
1층
일하는
##고의
비가
대거
의뢰
로드
##리자
##사카
엔딩
자체를
##조원
기도
현장에서
##구청
##──
전원
동맹
씨의
##왔던
초월
No
##트와
##국에서
##역이
##겠는가
넘겨
중심의
##음악
유로
기다리고
저축
죽음을
Bl
홀로
네덜
몰랐
##전한
주가
노후
##26
주변에
##들과의
극장
불어
평양
이종
##재는
나이가
다음날
되찾
##등을
미국은
썼다
대개
##ㅋㅋㅋ
힘들다
당시의
##였으나
숨겨
##00원
##민이
한강
##지수
극단
##경에
가상
##우의
##주의의
##게도
##주었다
영광
지원하는
##팀장
##도에서
물건을
작동
멕시코
들어갈
가속
조치를
바뀐
##테인
##ure
친구가
다행히
미국이
둘이
##리즘
존중
##렬한
이슬람
##아는
세부
##중공업
인간은
민중
수요가
분들이
##주면
발을
다수
정확하게
비서
##결을
한국에서
없으며
아이들은
가능성도
번도
방사
##류가
베이징
##스팅
##프로그램
읽고
CC
채워
IM
성공한
기동
상태가
유력
소위
구멍
너는
에피소드
##텔레콤
##웠던
재생
##수익
##으로도
##료가
섭취
감정을
넘어가
##전문가
##ㅠㅠㅠㅠ
##양이
증가했다
##이게
##치와
금방
정말로
부실
휴대폰
시나리오
긍정적인
back
모래
도내
61
현상이
심리상담사
##지인
##론이
드러났다
위기에
##하기가
스탠
마음으로
선도
##이었는데
지방자치
예외
눈물
##클럽
##고한
찍어
레전
##목이
메모
##환이
공공기관
시키
아니라고
##용이
보증
보도했다
경향이
##들었다
사용자가
##프의
주먹
고속
##겁게
##설팅
##컨대
필리
미국과
일치
김재
1시간
갈아
베스트
일관
실업
소요
##ect
사용해
자세히
원전
보냈다
##나를
말이야
사람과
PD
아쉽
사이버
##오를
가공
##봉사
##건의
fol
본인의
##구와
늘고
##reen
##저히
담겨
EX
##자유
텔레비
경쟁력을
일으키
3천
정부와
겪고
계기가
##된다고
##기에는
기본적인
들여다
부터
링크
##부문
진술
노트
##토리
회계
심판
모색
다를
##형으로
찾은
포장
있었기
##파의
환영
모니
해체
##로로
영국의
마친
##석에
장식
당한
보여준
연봉
##프레
선수들이
움직임
해제
대학교수
##PS
눈앞
자라
나름대로
이용하는
한데
정지
자신은
허리
곳이다
##소설
도서관
##법의
##광역시
공무
하시
원인이
##했다가
##초등학교
##금리
##교를
성립
출근
FA
##었기
가량
##론의
##차피
구별
리얼
때에
##ial
재밌
79
미국에서
건강한
##45
##하라는
터뜨
장학
둘러싼
의외로
시선을
##아시아
시간은
유전
##교육청
참여한
관련한
되자
ch
4차
MA
##군과
그림을
윤리
##end
##학습
신라
##행위
##평균
98
어차피
틀림
##되는데
땅을
무의
잃어버
86
5천
##고도
##위원회는
생각에
투명
친박
눈으로
##35
액션
##선에서
아이의
인민
부담이
위기를
책은
##의가
코리아
##들고
##연대
##억원으로
##일의
##재판
##21
##파를
이상으로
이후로
노예
게이
##거렸다
##분간
올랐
3회
보유하고
오지
##됐던
역전
대안
각성
체크
걸로
##OS
##스포
2루
##싱턴
##이어서
순천
##29
과거의
차라리
합쳐
##ee
##타는
##관으로
기술이
##등록
##내며
담고
맛있는
소외
AP
##ail
위원장은
배달
연구소
수익을
참여하는
재미있
##우기
심장
과제
##타가
II
철저히
스웨
하여금
난이
경쟁력
구단
고발
##니스트
지리
기업인
##하기를
빛을
춘천
##에다
안양
안팎
등이다
문화를
장관은
아니냐는
##졌다는
예예
가볍게
Gr
여행을
##세이
##교사
성적을
내면
##적은
맞서
부른다
##하게도
하나도
##임금
포지션
##ian
팀을
잊지
##나고
브레이
예산을
기후
##포인트
##욕을
##까지만
##이었습니다
##침을
##검사
마음의
5만
20여
탄핵
유권
크루
한층
있다가
지출
남자가
날씨
브리
단어
태도를
얼음
훼손
초래
##로스
오바마
병사
##투표
예능
균형
부천
##용을
왜곡
##스포츠
여섯
맡아
치료를
않다는
단속
없는데
##고에
##con
핸드
식물
##ey
전체의
다음달
##터가
요금
사업이
폐기
감동
유아
동해
황제
##감에
나라를
##스턴
##산은
연대
것일까
##소녀
SP
육군
##으려고
모를
##서로
구제
##번호
##교의
천문학자
비정규
9시
두려워
얻는
무력
아끼
청소
##시리즈
안심
꿈꾸
테이블
100만
간접
추적
기상
대량
##령이
##치료
선사
더불어민주당
당부
비타
거리를
적의
##포르
##름이
Un
##은행은
##ly
##차의
비례
공간을
완벽한
고구려
빠져나
공작
남한
이같은
##보지
##중인
나타난다
재배
이집
권리
##장도
치러
##펀드
##톨릭
실망
구경
불행
고통을
##산에
비싼
케이블
싶었다
알지
##트롤
어머니는
어려울
뮤직
택시
비로소
##럽게
유동
백성
현재까지
하위
##가며
문제의
교황
전체를
##점의
##되었던
공연을
##실의
대표하는
IS
반도체
경비
학생들은
##RA
안고
어머니가
이쪽
한동안
추진하고
##로서는
실력
어릴
만나는
장갑
나설
무소
바람이
음악을
자리잡
지불
##OC
미드
적발
남부
##ust
드리
움직이는
적도
맛을
org
앞장
아스
비율
후에는
면에서
##오프
극대
데는
96
현실을
던져
##인들
##거리가
나이트
EU
ㅋㅋㅋㅋㅋㅋㅋㅋㅋ
누적
매니
지연
정도다
회사가
특성을
110
##파가
최다
타카
##신도시
##시하는
시대를
##경의
읽는
사격
새끼
있으
종이
전해졌다
끌어올
하셨
가만히
##장한
##면은
##000여
충전
30년
보내는
Com
백화점
소수
SS
##생명
찾고
법칙
##자본
##국으로
프린
강사
##과도
##화하고
그레이
특별히
스튜
##하더라도
새정치
경매
작가의
##이든
10개
퇴직
짐작
##음은
진행된다
까닭
재건축
이끌고
일정한
외모
##역에서
속도가
테크
이루어진
적어
##크림
거대
IC
어리
싱가
물론이고
잃은
지옥
소중한
부러
업그레이드
##ground
직무
답답
이룬
조지
##랑이
##역에
##리나
##시청
##현은
배를
갖춰
##했는지
##하시는
버티
그릇
CD
일이었다
카카오
##ore
생기는
추락
퀘스트
중동
청약
떠난
있어도
간부
##으러
매주
가르쳐
서버
가려
비용을
##임에도
만다
특징이다
시골
약한
##먹고
스티
버렸다
국어
##기념
##질의
미군
실시간
골목
저기
벤처
##시장에서
##졌다고
이끄
거울
기능이
거리가
잡았다
단단
않아서
##됩니다
클래식
##이라서
입장에서는
사정
충북
철강
##폭력
재벌
한의
어우
세포
처럼
##실은
원의
김상
인터뷰에서
뜻이다
저작
기재
사용하고
야마
대부분이
##ass
##루가
논쟁
##전화
97
높여
##민은
작전
##nge
베르
##ast
않으며
금강
분야의
pad
비싸
상태를
떨어졌다
토대로
이겨
##법으로
##미디어
추석
##남도
업종
즉각
그중
편리
800
##99
##터테인
2번
##았다는
사고가
인상을
최고위원
내야
임무
gr
티비
종류의
##역으로
여성이
당연한
카이
##스티벌
활용한
학교에
개척
##공화
놓여
##소송
자존
##협의
먹으면
든다
##드라
신호
부정적인
##서와
솔로
An
높이는
얘기가
수주
한숨
##무라
간호
자유롭게
ST
많지
에이스
SK텔레콤
##해지
프로듀
매수
집권
받아들여
기대를
관점에서
##로에
아군
서부
체제
##카페
남의
위험한
장수
즐기는
침해
노사
##대사
##였으며
##니가
추세
안타까
##내지
보유한
##베르
터키
##업에
들어온
성장을
증언
블록
김진
##둘러
와이
의사를
넥센
벗어
받아야
당일
복잡한
##태를
##졌지만
커뮤니티
자체는
들어갔
적당
절대로
padding
되도록
87
출산
절망
풀이
부작용
차이를
양도
돌입
쓰레기
해상
정면
한가
이영
뭐가
미래에
##범죄
제5
풍부한
못했던
전까지
##시장의
거친
세계에
트랙
달라고
반박
희망을
취업준비
##33
전쟁을
background
##란을
다룬
숨을
##생의
##추천
##여자
동화
연상
##세포
지나지
##권과
장악
##MA
##조에
##이면서
이끄는
##름을
것들을
유입
주장하는
나누어
##었으나
시급
포스트
계절
조용히
고려해
말씀을
경찰에
방송을
##추어
투어
공주
느끼고
가계
정상회담
##풀이
상대가
동북
##200
승인
그다지
##편의
영토
7시
##황을
스승
입법
성공했다
생겼다
##EA
높게
똑같이
길게
누군가
##달아
전체적으로
재개
강릉
찬성
##진과
발생할
지은
##자료
스킨
##스레
오늘의
무덤
괴롭
차기
개발한
##man
##체계
##수준
사건의
1995년
대외
평택
암살
오스트
##네시아
수호
태평
최악의
##영업
##ich
복수
하느
##ear
##졌을
##조사를
##백화점
2009
활용할
전술
워싱턴
예쁘
최신
##거리를
##회장
자유한국
일부러
제공하고
시상
자기의
커뮤니케이션
거짓말
버린
사회에
##조로
한두
제재
##데미
##치면
탑승
##원장
줄어든
모르게
슬픔
비판했다
몰래
변동
위치를
신중
##방에서
학문
##qu
치열한
끝나고
격려
지적이
확실한
마디
dis
한자
해설
##크라
장면이
가졌다
경력
말까지
##왕이
대통령과
오랜만에
하나인
한창
금속
해명
##시브
후쿠
간주
유래
##일랜드
결과에
순식
불꽃
##류의
김치
경찰이
##일로
수준이다
연구를
아이는
##들로부터
보라
배당
것인데
머릿
##운용
러브
130
절차를
##협의회
이지
##늦게
##아리
4만
때로는
##에너지
##주차
별다른
결의
취업준비생
3위
##그러
웃음을
##병이
수천
##석의
돋보
마땅
편지를
파는
제도를
부드
##버그
자신도
심의
던전
개헌
##단다
둘러싸
김경
an
갈라
##주의를
잡는
없지
레전드
돼요
출신의
US
일본은
성격을
복원
참으로
사례가
##mer
71
##어지는
11시
판타
결제
임원
6시
##ok
시티
상처를
신세계
##슬러
이모
아이들을
명백
##연은
##사회의
##액의
제외하면
진학
크림
1명
컨셉
김기
오리지
편집위원
실수
악마
중국은
항의
일어나는
소멸
##서야
앞세
89
##팀은
대항
일각
##입니까
비극
앞둔
다짐
BR
얼굴에
뷰티
특성상
증가한
히트
늦게
기대된다
접속
##uc
여자는
가격을
4대강
##르며
확충
신화
여론조사
##kie
##묘한
않습니까
승객
##자나
싶지
꼼꼼
살아가는
비정규직
마산
훈련을
영구
국내에서
gif
난다
##BA
맞춤형
안산
##다리
흥행
##OU
환경을
##66
단위
죽어
3px
진행한다
대책을
동참
것이란
##거리며
##ex
##품이
##겠느냐
##업이
올바른
행위를
##37
##옵니다
##ock
삼아
학생이
임신
했어요
##건강
간단한
김포
분열
##가량
목소리
초점을
물에
이른다
미칠
급격
있죠
박지
##돌이
드물
바보
메시지를
서류
후보를
고수
##레이터
##배를
배운
다스
이럴
아이폰
부적
김민
즐겨
확신
##ss
전에는
옵션
하기도
벌어진
징역
중국이
##아지
이어졌다
캠프
묻는
##마리
##받지
외면
유혹
잉글
오피스
목소리로
##장인
순식간에
대대
##자로서
##추진
아니야
##마켓
##프리
말하자면
이어질
어지
오래된
##ork
위주로
점수
들어와
밝은
사업은
##항을
##론은
숨어
1996년
##ㅎㅎ
고속도로
사우
불과하다
잃고
건담
비교해
베이스
##희는
30대
##ber
표정을
##이죠
##상공
저런
##af
예쁜
##CD
일주일
건의
부모님
##그래
##버리는
그리하여
##책임
설명이다
방치
입찰
아이들의
설명을
알리
##중학교
진행하고
아리
비율이
중장
욕망
##라기
속도를
##체제
걸고
거다
##판매
##혁명
시위
오오
회사는
진영
있었을
##운동을
웃었다
실종
##는데도
질환
사람들도
일로
크기
black
서서히
냉장
##팀이
시전
##회의에서
고객의
##고요
시작해
비디오
활성
##숙한
##민족
올리는
계승
합동
##국과
##점과
라이트
나눔
##속으로
You
유사한
내보
##어지고
기어
가슴이
##측은
수사를
##퍼스
스펙
##까지의
##재의
서브
건데
##고속도로
필요로
##지다
피해가
있느냐
안정적인
한국을
여부
바닷
##소와
##도우
영화는
믿을
폭탄
모순
##막을
##두는
형편
날카
포트
도는
충실
##물질
동시
##ph
누구도
조례
정수
있었으나
##목으로
##습을
감상
노하
머리가
재현
모르겠다
점포
생각보다
기준을
##방향
눈빛
해주는
상실
촛불
##시간이
혼자서
##회와
완공
##스러워
애초에
##생이
두번째
요새
같애
끄덕
188
##IS
안동
법을
이야기는
##ran
조달
##야만
중독
wikia
한국이
실질적인
전제
##니는
중간에
있었다는
##순위
준공
##ookie
전직
할까
수준을
커플
이후에는
자이
##로워
조건을
촉진
##둥이
난이도
회담
상무
분석했다
남긴
##층이
##용품
##췄다
본선
##공장
##범위
##인도
출현
생각합니다
신이
연재
고소
무서운
주시
자발
##주얼
아픈
좋게
사고를
도발
##버린다
고객이
아라
바라보는
이용하여
차지하고
원장은
조명
##부대
이같이
##받침
페이
##화할
##북도
##킨다
엄청나게
진행된
##미나
히어로즈
커지고
땅에
철거
1990년
있었다고
성공을
통보
선전
##놀이
탁월
고양이
주장이
##권에서
알파
잠을
가짜
##사령
젊은이
사후
오고
##ice
화를
일러스트
주저
답했다
음성
상대의
나간
2억
맡았다
3번
##셔널
존경
그런지
##당과
필리핀
일본에서
지능
방문해
##산화
수면
잡지
##되게
승진
회장의
시작하는
생길
기억이
##ple
##하자는
쌓아
얻었다
기업들이
##건으로
분쟁
즐거운
스웨덴
##지라
블로그
총괄
##함은
끌려
출간
상황은
##77
생애
8개
소식
팀장
스키
##급을
놀라운
성취
보내고
##투어
##투를
##치면서
절감
##사용
##축제
생각하지
1인당
편이
대단히
감옥
잡을
스페셜
##VE
제압
##플러스
아침에
감사합니다
등등
##홈런
자신과
날려
New
바람직
160
회전
##우지
인도네시아
##급의
94
귀국
##금으로
미소를
밴드
바라는
공원
한국어
시에
##선과
be
##물과
상대를
어서
82
피아노
구조를
##워드
컨트롤
10대
생일
##대문
보냈
단축
##냐는
현역
세이
신흥
##sh
없었고
개념을
관중
아베
신경을
상영
데미지
##종은
##수산
##시장은
가지는
##금의
저희가
7개
모은
모니터
특이
충격을
유효
찾았다
의문
인생을
치유
덴마
편입
나와서
여담으로
##놨다
원천
대답했다
대공
물류
뛰어넘
제주도
이곳에
##우며
국민이
장치
##린이
##링을
클리
바뀌었다
네덜란드
몽골
나란히
##노조
무산
달린
어머니의
실정
6년
noc
##유럽
인테
동계
도저히
아사
##하느냐
김용
안드로
##재정
넘치는
주주
우연히
정해
회사를
더구나
과장
##두에
피해자
괜찮은
어렵게
솔직히
발언을
절차
주가가
##속도
중구
금호
콘서트
나은
처음에
코믹
##36
실력을
면역
승강
혐의를
그러고
7년
##서울
규모로
버튼
주변의
##사한
대목
않았을
영화의
학교에서
피고
없다면
마찬가지다
농협
성격이
##우리
결심
##하듯
억제
테스트
진주
별도로
파란
있을지
##색의
사전에
##총리
nocookie
정도였다
났다
##관련
기업은
##재생
간담
패키
비타민
1로
남을
사용자
곤란
요시
시공
##회의를
용산
##하우스
다리를
무료로
지지를
노동자
##교육을
작품은
##행사
기자회견을
벌이고
감안하면
유지하고
못하면
한국과
##파로
##중심
제로
스프
먹은
오리지널
##88
하나씩
##oad
140
저렴한
여기는
중도
##range
당당
만만
등판
##안보
##ind
더해
데일리
불가능한
북한은
구상
감추
신비
8시
흐름을
##복합
최근에
기사를
FIFA
비공
사회를
1994년
중화
도서
영상을
가능성
##위와
사회주의
가맹
##페라
Cl
무효
버려
name
로스
그다음에
원장
농구
치킨
##공학
자칫
##데스
is
아티
주민들이
화물
쉽다
##이었으나
##루스
##집에
##으면서도
독일의
줄여
오해
혈액
노란
의원의
맥주
레이저
더욱이
관통
은근
남편이
부드러운
죽는
로켓
##스트라
##발이
##NA
과일
##었어
것인
먹스타그램
반짝
##하긴
##부르크
##주세요
##방으로
채로
어째
요약
##old
아픔
케이스
메가
주간
협박
##당에서
약속을
아시안
##ond
통치
마구
상향
가해
추구하는
허락
떨어뜨
##러드
부를
##질환
##오가
돼지
##시장에
언덕
분야에
나뉘
이로써
이수
##행이
요구했다
##풍이
때문입니다
갑작
관할
대구시
강경
folding
얘기다
관료
철저한
##55
역사의
장군
한꺼
3학년
##약품
하늘을
스트레스
시야
##아트
국가대표팀
진료
##층을
SM
##할지
해안
클린
##인들을
대가
정신이
스톰
경우에도
국가가
과거에
##IT
갈등을
구원
쓴다
##곡을
많은데
탈북
##마에
평가가
패널
##ula
##집이
##됐다고
##타이
##격이
##스럽다
어디에
트로
사드
마크
점수를
##혁신
낮추
알았다
한꺼번에
##되거나
정원
##화되고
호응
##때문에
##림이
##았어요
##선언
보다는
2명
##oy
화염
허가
흐르는
##ook
700
어르
81
내놓은
배신
독점
뛰어들
4강
##인데요
날짜
분산
이르기까지
디자이너
매체
관여
##현이
이해가
##할까
점에
말씀드
고문
##러가
당사
살펴보면
태도
10분
설문
점프
싱가포르
이루고
##카이
제임
시리즈의
이곳에서
무대에
아니에요
메이크
화재
재난
커버
##ies
##조리
##감도
##가루
생생
토끼
수를
힘입
과목
시민단체
새겨
자의
비판을
불렀다
##계열
93
어두운
정부에
보컬
없던
잉글랜드
##ory
세웠다
##적이며
논문
##보로
저렇게
어떨
##다이
정통
대박
주민들의
일곱
사립
##했다면
문화적
결국은
식의
팔을
진행되는
지진
##DP
스타크래프트
##어졌다
##지능
지역은
순환
세탁
대상을
탤런트
##ung
공동체
2시
이후에도
##━━
받기
하라
쫓아
##순환
유리한
애매
가사
다루는
반응이
경선
음료
##시절
가면라이더
부당
높고
의혹을
최상
가벼운
안전한
누리
바닥에
영원히
작품이
적립
웹툰
나라가
배우는
중견
##무기
우리나라의
지키는
트레
2학년
##청을
실용
하루에
MS
밥을
올리고
불확
##되지만
자금을
가능성은
연구원은
##였다는
오면
신장
마나
김대중
특검
##더스
중순
다수의
정신적
##현의
발라
노력이
뭐라고
달한다
선택할
가정의
##기에서
##했었다
미국에
국정원
해가
피할
##런스
내밀
지표
오로지
각각의
타당
##년에
견제
지식을
##시장이
원활
##ram
km
공동으로
전차
물고
##분은
의미에서
##타의
유가
##구에서
##46
##경기에서
채무
##시설을
환율
라이프
취향
##인터
##동강
##하지도
선보였다
미만
##하를
##시피
좁은
코스피
윌리
그로
표정으로
장면을
Pro
역량을
##위원회가
시점에서
당해
쓰기
나갔다
나고
경유
남쪽
2인
전파
일어났
이벤트를
##만큼은
교수가
##작을
##대비
밝혔
억울
개조
습득
이태
##play
대통령을
것일
##양의
##지대
##위에서
힘으로
양쪽
멸망
후보의
##스톤
##니를
누워
##등한
##동은
맞아요
목을
후보로
호기
죄송
##채를
나지
각자
이은
연료
용서
한일
크레
##실험
뒷받침
##저축
여기저
부자
죽음의
많아서
##쾌한
상관없이
프라이
K리그
form
가족이
##청에
있나
##아아
어려움
사라진
아트
##됐지만
텍스트
협약
소프트웨어
보이며
늘려
me
안녕하세요
열쇠
서해
30여
기업을
돌아와
##백을
##처를
남자는
걸음
있으니까
착수
효과는
열렸다
세종시
해보
##면이
잔뜩
아래로
사건에
##오의
##주년을
자문
스크린
마이클
##마이
용병
제이
##리우
##사진
VS
파라
법원
대단한
별도의
정도를
직접적인
내려가
앞선
##차게
일부를
중고
##친구
##오스
하수
##버트
것이기
고성
##니까요
티켓
조금만
그쳤다
가톨릭
개발에
입력
목적을
환상
차원의
##역의
개발을
우유
##년이
창립
겨냥
경쟁을
기원전
온몸
##자들과
받으며
##75
자본주의
간편
##ove
##LL
일어날
상생
집착
100여
이외에도
평가했다
관련이
제품은
뜻이
비대
무엇보다도
위축
관리를
그렇기
아랍
대략
제법
대표의
회의를
##온이
하는지
내수
인생의
된다면
골라
박정희
##보증
주목을
꽤나
시중
학과
##하고도
지낸
##시장을
##련의
유희왕
MV
무섭
##어리
수험
##롭고
##메이
까다
고도
##사키
##차별
확립
첫번째
연설
대해선
김연
##루션
##티드
##플러
연구원
작가는
기뻐
##ne
뒤늦게
##르가
않는다고
전체가
무선
##인한
##노총
2002
슬로
##다니는
병행
이대
앞의
기대하고
야간
##렸지만
1호
알아야
이후의
##니의
부패
어디까지
고스
생명을
프라
태양광
주식을
##적이었다
##층에
사건은
함유
추모
##39
납치
##one
허위
NH
비용이
##tp
4회
서울특별
세우고
##버리
야외
김일
임직원
##담당
조만
##line
국회에서
의장
일본에
즐기
써야
운송
##그라
필요하다는
sh
골든
##지검
알리는
3명
다녔
##력도
##히지
##44
되어서
MC
##요한
놀이
de
줄었다
일자리를
미래의
얼굴로
협조
되어야
청주
##아를
명문
수준에
동영상
교육과
##소통
물가
##나라는
변형
##니와
마시고
유산
Br
존재하지
군대
잇따라
바꿀
##모로
오늘도
마련해
다문화
나섰
##AC
이병
돌아왔다
닥터
의미로
##데이터
변화에
팀은
시민들의
감지
전담
밑에
##디스
총장
##에겐
찍은
1대
차원
##io
실시한
##소리가
일환
불만을
과정이
민생
곳곳에
자부
타이밍
마인
않는다면
치즈
대원
나타났
말인가
일본이
에너지를
##용은
##NG
##만명
어딘
천재
요구를
##셔야
##께서는
세계적으로
이전의
최순
MP
권리를
##이트를
전형적인
사람들과
네티
사회가
맥락
안된다
파이터
##지역의
식사를
비유
##소비
고무
완벽하게
##속에서
##했어
문화재
한마디로
##카가
##념을
비중을
활약을
##사들은
납품
세상의
편지
도약
회수
청중
크리스마스
신발
입장이다
유해
감수
기가
지방자치단체
작품의
##씨와
내리는
학교를
주행
##심은
의결
전통적인
레인
오를
태국
검찰이
##ick
무소속
선택한
드림
8강
##뉴스
##호와
퇴근
막대한
##더군요
높이고
가난한
ㅠㅠ
제조업
체력이
연휴
학술
상속
##놓았다
비하면
예컨대
주어진
##니즘
분당
내의
##방은
왠지
##ath
사무총
입지
연구개발
듀얼
인간을
여신
##코의
##ime
##방법
적합한
합성
포도
2시간
##ib
표정
발효
플로
기록하며
나서는
선행
역임
섬유
그간
불이
무엇인지
만났다
이순
피곤
##ical
##ogo
타자
##aw
약간의
##리안
입원
결과적으로
##개선
나타내는
카르
확률이
써서
착각
##인인
##ost
##집니다
추격
##풍을
사용되는
봤다
예전에
입에
현상을
잘라
과정에
##dn
5회
행운
Te
했으며
##반을
자유를
소중
자매
무용
단행
유망
줄을
##하였으나
댄스
뒤에서
나선다
LED
유학
수송
베어
##인들에게
계좌
1학년
미루
폭행
네티즌
##참여
건국
피로
LA
SU
어머
터져
이마트
##교회
목격
파고
사업의
성공적으로
소규모
1분기
보고서
3루
이하의
일일
##람회
수단
완전한
끔찍
잠수
야권
이득
##실장
여왕
힘들어
전세계
산하
그리스도
이사장
피를
당시에는
물려
##으론
기억을
그러다가
휴가
##기인
수술을
이데
상태에
실제로는
사쿠
ㅋㅋㅋㅋ
그들에게
인문
##편에
되돌아
북부
##됐다는
바퀴
정복
##토를
기업에
미나
리듬
서둘러
##일으
무지
PS
아내가
##결정
힘입어
한계가
쓰이는
##선수권
1992년
대한항공
아들을
건네
두드러
규모는
인하여
결혼을
하려고
제품의
표현을
똑같
당분간
##파이어
용의
관람객
징계
녹음
무난
경기에
매출이
아이스
산책
##스트로
##즈키
명시
1990년대
이윤
언급한
느꼈다
동성
##지마
도박
토요일
견해
##시간을
사용하지
##토가
번호
##order
서초
시계
it
사회에서
지키고
잇는
##소리를
부끄러
제시한
##오카
나오면
스트라이
##하하
##ize
##해설
안타깝
92
들어오는
##족의
최대의
내정
진행하는
아직까지
##빨리
선보인다
예언
착한
미세먼
잠실
주인공이
봅니다
콜라
이어지고
##두를
수시
##미야
대충
구름
##85
존재를
함께하는
가져다
##그룹은
도둑
##령의
기대한다
##가에서
##ence
해결할
SC
전망된다
orange
마련했다
번째로
높았다
##orld
차세대
한양
##산업의
손이
결정적인
때려
덕에
억압
오사카
확인됐다
##정신
##접한
작가가
##학원
컨설팅
북쪽
##있던
귀를
권력을
display
BM
참여할
##정상
정보가
제시했다
유연
연수
##ire
경쟁이
공개된
역사가
유독
구해
두루
들어선
생각도
##공연
염려
입장이
스포
##용차
씨를
##편을
저소득
지역사회
과학과사람들팀장
후회
유명하다
일요일
가이드
속도로
제2차
귀찮
2조
##년의
바꾼
숙박
##수지
오르는
##95
##분양
밤에
16강
느끼게
헤드
GM
수급
마리아
데서
여자의
빨라
공익
연기를
하니까
http
지었다
딱히
목사
방에
##값이
장을
pp
후기
##투자증권
가죽
1993년
대법원
formula
심하게
가기
반대하는
##ID
일본어
##파는
명중
삼십
결정했다
감싸
교장
##위원회를
마음은
문명
안다
거뒀
당시에
도구
체중
현장에
신부
회사에
AT
않았다는
선제
전망했다
불가능하다
무기를
클로
##코는
##전사
사라져
과도한
남양
한계를
##였을
엄마는
재미있는
불러일으
조만간
##cl
##들인
##들만
올릴
버그
인적
피의
지목
전인
조사됐다
##orm
##포럼
도모
죽고
기반을
##act
대변인은
들어간다
##ary
책이
돌아가는
##미한
수업을
##설이
사례를
##우먼
세상이
Ex
아닌데
추정된다
워크
대부분은
##됐으며
보충
##억원에
##적한
후에도
선포
달고
시작할
지고
감당
##렸다는
종로
중립
수준이
라이벌
사태가
##오리
CP
##이팅
##브라
inst
지점
모범
남자의
조리
들어올
IB
전쟁이
2008
청문
사람으로
수수료
활동에
진로
##은행의
이번엔
강도
##IP
시를
당신을
마술
유의
의정부
##처분
##였다고
장례
매치
##정당
끝이
늘어날
##관계가
##색으로
뭐야
프로야구
만나게
어우러
인물이
여기에서
가요
마약
##64
##31
보육
##계획을
눌러
발급
아름답
처음이다
결론을
##박물관
배경으로
3000
전교
포함된
##고속
나갔
##oh
##장치
##리포
##르다
재개발
건강을
근처에
여객
##티어
##up
태극
무작
소음
바꾸는
다음으로
이루는
준비하고
일명
북한에
Re
신임
반해
전당
##쳐서
튀어나
현장을
##들여
불거
관절
##버려
##올로
경우를
모티브
위험이
사용하면
몹시
언젠가
쇼핑몰
세련
시민들이
좌절
문화의
제어
치는
가자
##버리고
전신
이어진
와인
위탁
해설위원
정성
명령을
않아요
##드레
미스
대회에서
지붕
필요는
나카
##기업의
개를
##되던
의회
중대
중계
##OT
어깨를
당내
##운다
의미하는
##나가는
##구리
##OL
불평
##해야만
원인을
노벨
구사
##토의
입술
리스크
류현
##GM
##이치
참여해
전무
전문의
##화될
노르
##보건
왕이
##세와
신뢰를
5시
사장이
##하니까
따져
##공이
길은
와중에
갈등이
유키
건지
소울
##상한
##터테인먼트
양국
진행되고
여당
연세대
짓는
##역사
강연
2주
적대
##감으로
결성
있어서는
##마저도
소재로
출장
1980년
돕는
정규직
제공할
토마
##식에서
무인
짓고
사물
너의
엑스
갖는다
보낼
##먹을
##위키
근본적인
들지
중국과
배정
포착
우린
단백
찾지
이해하고
이어서
KBO
바둑
꼽힌다
5분
김광
야생
##았으며
##게이
서울의
기숙
가슴에
되지만
부근
왕의
출석
##바다
무거운
삶에
매도
전의
##파이
##국장
컸다
##5천
믿음
윌리엄
DJ
높아지고
중국에
확률로
여의도
수련
##65
구청
수시로
##디가
가슴을
##카의
번씩
편하게
쓰면
분할
측이
게임의
이길
##있고
처분
뿐이었다
구성원
번의
동방
관계에
인종
중국에서
##박스
군인
##속을
특정한
##되었는데
명절
단편
낯선
메달
##허가
##건은
##리라고
양의
이듬
TH
##38
손잡
고추
대학의
거둔
선진국
상가
비고
알아서
방어력
짓을
##하가
##렸습니다
인쇄
공간이
영향력을
노릇
어느새
육체
border
아무튼
높였다
분들
사막
다이아
첫날
서명
디스플레이
Sc
필요하다고
저격
##언이
고집
로맨
하나하나
입사
Se
LG전
서로의
가격에
품목
##실과
##견을
찾아볼
프랑스의
김수
##장관
보물
반면에
##워야
바가
역사상
##차량
아이템을
침략
달콤
##ette
##여성
인공지능
사회복지
스튜디오
##센터를
일어났다
감축
비핵
##가게
##ere
제발
##거야
##ES
그렇고
시정
상한
IMF
나타나고
의식을
##영을
막상
4천
##던가
용어
##건에
문화예술
##ide
##사도
##터는
광명
만약에
AR
##찰을
인형
000원
대지
전락
기다려
본부
현황
마녀
##해준다
순으로
##통이
팔아
서울에서
동구
##간을
읽을
##34
상의
##은행이
바랍니다
많을
입맛
있었으며
시대가
아일랜드
좋았다
과학기술
상하이
자제
식민지
없으니
##학은
휴식
차이는
눈물이
##교가
경제가
##수석
3연
91
Pl
##머스
직면
가라앉
어울리는
이듬해
모르겠
초반에
코드
##되었을
##면에서
영향으로
당뇨
기다리는
생각한
##ㅜㅜ
##졌으며
협동
소셜
food
##움과
##루의
##실점
아이들에게
미야
득표
1991년
##과학기술
##미래
상반
생긴다
전라
판타지
내외
주전
있겠지만
대접
각주
조그
지경
동굴
##코가
어르신
들어왔다
유럽의
내달
##이거나
동서
티비조선
나이에
코치
##피를
적게
이름의
비전
발의
안드로이드
##비드
##세한
##열을
머리카
##ug
음주
아쉬운
##ink
##닉스
##방울
##약한
전철
가까워
재단
그래픽
공사를
요즘은
포괄
성실
영문
서로를
자고
##own
정유
##법과
끝으로
넣은
##슨은
자연의
##독한
추진하는
장성
사운드
상주
##ace
반성
페스티벌
위장
선을
개인적인
아저씨
브로
##채널
잡혀
데미지를
박영
빛이
##기보다는
응급
##OM
green
드러냈다
위치에
개시
##라와
베를
안되는
좀비
봤을
소식이
붙은
재발
350
##일드
주류
##티아
키우는
##예산
되기도
국민의당
적에게
정서
세상에서
##합을
싸우는
##티나
##보드
정한
증가하고
##있게
흥분
모델을
세금을
걸친
몰라도
##슈타
원이
역설
좋다고
유지하는
##AS
##레나
희귀
페이지
부모가
LH
사라졌다
이상은
불명
진상
3년간
영화가
예로
더러
##트에서
믿는
방법이다
개인적으로
일으켜
김지
리버
시간과
수렴
인격
조사한
싶다는
고객을
저를
속하는
현직
170
태풍
##계에서
##플렉
수의
3시
때보다
##회관
##버스터
주연
한결
##밀하게
성적이
아버지를
고스란히
##전시
187
##강을
##기금
같고
염두에
패치
##사들의
마르크
임기
계시
##청의
급여
정상적인
김씨는
낙동강
하겠습니다
주민들은
연구가
선수들의
매니저
1980년대
아르헨
신성
모았다
포르투
크리
존재가
##하죠
양이
##ile
##진에
안의
2001
예금
원거리
바위
타이거
진실을
날개
에드
##공헌
##리던
예선
베네
이사회
관해
##고와
##ish
##됨에
주머니
그랜드
##터미널
##마한
##된다면
##인트를
자동으로
소금
트럭
##센터에서
여지가
책의
번에
오스트리아
분석한
레이스
적혀
박스
##기관의
제국의
##해줄
##시간에
형태를
가전
본능
미소
맞춘
밖에서
성별
성우는
기간에
구성되어
법안
얻게
모르지만
살피
##화되어
##학이
##케이
수확
제품이
3배
병원에
밝혀졌다
대학에
몰랐다
특이한
MB
캠페인
풍경
푸드
##란이
##터의
##동으로
아오
크로스
송도
##조차도
줄일
마스크
##렉션
##유가
##출을
제휴
순수한
다큐
폭풍
기쁘
##스킬
##어질
승점
지나가
어디로
1분
방식이
##라이언
##본을
권위
##선생
fr
탄탄
학생들에게
응용
암흑
##과정에서
그녀에게
등장했다
얻기
스스로를
전성
판매하는
산림
##★★
친절
타는
##ens
스위스
직원이
##무가
지나면
캐릭터가
목포
##EN
우리도
아메리카
조직의
초록
코미디언
보좌
##ann
##지법
주장한다
머리에
##냐면
AC
민원
##ix
##골프
##정책을
자랑하는
납부
맺고
배포
정답
규정하고
##ない
끝났
##위원장은
청춘
해수
집이
귀여운
시민의
모의
레오
##취를
배울
일정을
Or
교과서
남겼다
##말이
칼을
##수원
착공
##심과
##회복
설비
나오는데
최우수
이것도
맞았다
말아야
진행할
벌인
제자
내구
입수
형식으로
##베이터
제6
5000
필요할
확실하게
PR
다양하게
##패로
##지나
##밀리
##들보다
##DI
대형마트
유지할
##주도
##론에
사람이다
교육의
불만
본인은
코스닥
##유산
##투스
##렸다고
6회
##ome
##길에
필살
되었습니다
사실에
만하다
아냐
##법상
넘나
인식이
##심사
모습이다
국세
추진할
교훈
3인
발생했다
아이디어를
도요
서울특별시
먹기
도시의
이뤄진
다음은
신동
새해
프랜
막내
측근
대치
자유한국당
##주며
##바라
##페이
끝날
강행
이시
수성
과감
입단
학생들을
해고
전체적인
게임이
8회
가족의
역량
##어와
전략적
확인하고
스피드
##카를
미스터
##능력을
레스토
원주
##받는다
남는
드러내
계신
##지기도
한달
##당하고
최후의
견디
9회
##푸드
##OP
모인
내비
소문
구석
진출을
같아서
소극
지방의
바람을
분명한
여러가지
관세
image
##역은
##키가
##였기
무죄
손상
관계자
얼른
자신들이
아닙니까
부른
전진
요소가
논술
판단을
##피해
자신감을
##바지
문제와
동아시아
움직임을
나빠
보이지만
테니
##권으로
의혹이
뒤에는
되살
대표적
활성화를
겪는
싸움을
신축
길에
이며
환자가
데에
직원들이
주유
뜻하는
만나고
동쪽
주한
##표가
감성
카타
응시
걸맞
##리조
##과를
알렉산
186
##AL
빛나는
##소장
레어
##sp
위험을
춤을
틀어
인구가
소송을
모으고
4위
##되었다고
급격히
##상승
공군
있거나
여자를
2부
##심에
열정
시간의
에도
반사
자세를
##98
##나갈
##되었다는
늘어나고
튼튼
1988년
문득
급속
##포트
2006
이라크
사랑이
5년간
오피스텔
##집에서
유니폼
없도록
신혼
4번
옆에서
삶이
종사
매월
지도자
##있어
라면
말레이
진심으로
제임스
침입
외에는
세븐
빼고
걱정이
당부했다
##개국
##ax
문제다
with
##간이
얼마든지
광양
정해진
침체
0으로
근거로
쪽이
##사업에
그대
자이언
##린은
하나다
벌였다
##수요
고쳐
간신
요인
2004
font
공개했다
의학
세우
##으로만
기호
텔레비전
실버
맞대
##미와
##로와
##초를
빌딩
무대를
##카는
##라며
3분기
##리라는
원래는
##전형
해마다
삼성전자는
이해를
자유로운
##학년도
원자력
민주화
부착
##판은
피가
1989년
배터리
##리언
주된
이외의
웃으며
원에
저자는
잘하는
참여를
담당하는
말아
시리아
묻자
비틀
##ous
##시켜야
알바
영원한
비트
너를
##인데도
##르르
중요성을
운명
기준이
삼고
두는
촉구했다
철저하게
위치해
브라운
##스타일
2대
매력을
단점
##격으로
환자의
민주통합
##로나
##권도
매번
조선의
바쁜
필드
##대학원
재직
원으로
위성
3억
##희의
##이지요
보병
의지가
##줄이
일으킨
부정적
##변을
##워치
##제철
설치된
##주자
접어들
그곳에서
##도르
##전선
##pt
높이기
##속의
일원
##ance
부가
스미
40대
장점이
동행
##통상
5대
있었어요
부상을
이원
단호
세계적
기존에
마늘
속에서도
어렵다는
##왔고
##급식
##론적
그라
심어
##미사
국산
전망이
계획이
sp
타격을
##셨어요
##밀히
마비
감정이
늘어나는
##고로
바쁘
re
##왕은
열려
Tr
##이라며
고작
계열사
농담
이유다
화폐
팬들의
양념
온다
문제점을
괴물
바라보았다
문장
캐릭터를
스타트
저질
브리핑
7회
불렀
1987년
한진
면세
사이로
당첨
##키의
나중
줄이고
##드려
경제의
포켓몬스터
##olog
매직
자리가
냄새가
이의
떨어질
부추
여기저기
##센터는
##동과
재산을
파업
갤러리
몰고
어떻게든
죽이
##등이
##도서관
걸었다
지각
방문한
메카
잡기
발간
##⠀⠀⠀⠀
##창을
나무위키
하이브리
##AA
선보인
앉아서
나누는
##위원회의
현지시간
##전에서는
##동물
네이
조준
##low
2분기
협상을
##IG
##감의
최적
되었을
너머
시설을
김병
건물을
유인
##타워
##47
쪽에
##것이
못지않
##졌습니다
무더
데스
문화가
수습
##보단
##우와
##az
##릅니다
##드라마
위해선
말입니다
총리는
MVP
관계는
##eat
##공사는
신청을
특징을
##서치
때문인지
101
내릴
##iss
엄격
효과적으로
지주
지루
분기
유료
안성
기성
오페라
1999
고민을
##ther
UN
지극
##ignette
##ons
다해
포털
##린의
사서
##인사
##오지
해운대
vignette
##더러
기간이
장사
금감
참석했다
##32
##막이
조직을
##림의
활동이
##레일
실적을
##당하는
지원하고
##거를
조항
오십
시즌을
##여명이
노려
2003
소홀
##쓰고
떠나는
관념
##측의
##제작
후보자
끌었다
아직은
양반
kt
최소화
##나서
아니었
보석
##ah
오락
절실
실은
지는
망설
탐구
##AT
신도
내장
##재료
##달라는
세무
효과적인
##셔츠
##마루
지원이
말하며
##ult
대조
시집
메리
막고
##협약
정글
스님
LTE
##발의
마음대로
임상
국민들이
민주당은
안겨
##국인
걸리는
적당한
반려
취미
사라지고
해피
나눈
원칙을
##불을
그러던
##디를
글쎄
주인이
##팀을
##매매
##페이스
테이
선생님이
모양이다
면제
서쪽
레스토랑
배우고
강조하는
수분
달에
##프리카
울트라
후손
국적
갖다
정무
넉넉
##진한
이어져
순서
바라보고
관계로
촉촉
로고
늘어났다
마쳤다
어색
지적이다
싶을
부유
비중은
하도
함정
목표는
##지니어
역을
한해
##임은
어렸을
사회공헌
주세요
독재
주신
정책에
결정하는
4시
##이요
임무를
열차
받으면
upl
사도
선물을
전반적으로
스태
드러난
해적
사거리
##5000
식량
군은
생명의
##agram
##절로
지역으로
담배를
여동생
##대장
성능을
힐링
가능할
개가
광고를
신사
국내에
죄를
역으로
##디움
가능하며
제7
##코스
의류
1998
싶습니다
엉덩
후지
당했다
##커스
불린다
증정
마지막에
가족과
꼽았다
스카이
신제품
선택을
##르몬
그해
##레를
##희가
청산
추출
권유
간단히
이곳은
월급
통산
침몰
고객에게
HD
시작된다
##장비
높일
키우
화제가
핑크
계란
##인민
터치
감자
등산
살이
합리적인
size
##방식
프로세
##한을
메탈
할아버지
upload
양자
있긴
적정
낡은
도착한
품고
선수는
발전에
불확실
원리
생산하는
##하곤
##문에서
AS
##ai
준비가
자기를
##졌는데
바라보
고사
초등학생
탁월한
비교하면
관리하는
지역경제
##해주고
대의
치매
##는다면
축적
##ash
수신
부모의
밝히고
해병
준비하는
스폰
10명
24시간
##지는데
이르러
간혹
과시
##천의
파이널
떠났다
랭킹
검찰에
공인
사무실
##ake
같지만
즐겁게
퍼져
현안
거세
숫자
선거에서
합작
이가
##학기
입니다
##야지
##학회
미치
여학생
일방적으로
Wh
inline
CF
발생한다
끝나는
버리는
정치권
##라노
White
##리얼
인원
##모의
##으려는
친구들이
##한이
활용하는
막는
않다고
나서고
삶은
모델로
비리
해금
소지
마다
2007
말과
##68
있잖아요
중복
##포먼
##함으로
둘은
이들에게
지원할
원유
##릭스
남기고
미네
##콜릿
출처
##적이지
1997
역할이
포럼
경기는
가령
소매
극히
운영을
권고
상대방
##문으로
EC
벌이는
유족
아티스트
강동
##타이어
선정된
엇갈
들어가면
조립
##ational
맛있게
패시브
적당히
있듯이
8년
일일이
wh
나한테
right
인식을
##대교
비슷하다
능력치
미치지
근로자
##인권
수직
##nt
법조
##일수록
주장하고
헤이
유승
시스템이
파악하고
주사
##기반
기체
##AM
입장에
자체의
펼치고
가중
김승
챔피언스
전수
##민주연합
늙은
자국
##차이즈
전격
##테이너
##면의
논의를
강화를
##포로
by
달리는
##스럽고
사찰
수록곡
##럽고
##판의
길로
일하고
War
권한을
모양의
##령은
사이가
고난
##랭크
성사
##계로
목적이
때문이라고
성분
##부지
이고
아야
어이
##듯한
보여주었다
죽여
연다
싶다면
애국
블라
이집트
뜻으로
행사가
삼각
곡을
곁에
소개했다
##인치
줄이는
이렇다
훗날
지나친
끝나면
태평양
철수
차분
##판사
플랜
##할때
판정
정보통신
살펴보
분석이
꾸며
##형에
누군가가
##스틱
함부로
##협정
##기나
##bl
De
소문이
협력을
투자가
##한의
##리포니아
접목
디젤
권총
내각
당의
양보
105
광범위
과잉
데이트
##모는
선호하는
출신으로
리가
##동에서
##하겠습니다
떠올랐다
스파이
신생
영향이
몸의
측의
##ys
##별로는
##눈에
다가가
클라우
빅데이터
논란을
##하고는
듯했다
3층
비판이
교통사고
폴란드
코스트
맑은
##팀의
홍준
거칠
##하실
사마
마법사
##중이다
남해
개그우먼
벽에
##와도
##명이다
##담한
있기에
이데올로
글이
파생
강하다
##가서
전지
찾아온
조합원
대성
##사태
일부는
요구하고
##49
##재산
피부에
##이었다고
말하지
제안을
규모를
물량
포르투갈
내리고
주위
○○
##용의
어려움이
##렸는데
선교
##78
되풀이
수여
눈앞에
정밀
뚫고
프로그램이
주면
185
기지
준우
후퇴
컨텐츠
게재
##민을
유전자
국방부
감히
GDP
이글
메이저리그
##코드
피부를
##100
타이어
딸이
하야
2연
타워
##았으나
처치
각기
##료는
##합의
##평화
공격이
광화
민족의
##준은
답을
##하네
뜻한다
서식
이내에
간신히
##리온
신종
소용
늦은
문제도
##속성
특화
계곡
시기를
공식적으로
이미지가
##판에서
중얼
##부족
분석이다
DM
상기
빈곤
상환
He
박성
##황이
너도
##저스
##게이머
될까
정교
##당했다
있음
행사는
##내야
##지역에
##졌기
박물관
군의
기사가
시작됐다
상식
뒤집어
서울중앙
많다는
##리에서
##몬드
출신인
마련한
##소재
들었
대비해
##단체인
퍼포먼
이해하는
사안
주목된다
##님께서
데이터를
따르는
있는데요
혼합
화해
행복을
다시는
KTX
학력
드릴
한방
의사가
사정이
##ism
기둥
이번에도
평등
유치원
증상이
사천
##주의자
##걸음
6만
장관이
놀란
사흘
최후
##네트워크
않았다고
종업
전송
모터
습관
##GB
2005
##내에
그곳에
개선을
##뿐이다
한류
차량을
딸을
성공적인
가지가
비율은
모리
나타날
쓰여
사랑에
싶어서
맞다
깨끗한
처녀
##ert
##공의
돈으로
##시키지
각자의
상승했다
들어가서
##그룹의
묶어
가족을
##공급
남구
싫어하는
불편한
그런데도
##라스틱
##되도록
광주시
거리에
원내대표는
맞습니다
떨어진다
구조조정
친일
radi
형상
이대로
##호로
심화
용이
화살
모습에
웃는
가다
영역을
한숨을
교도
인정하고
끼고
##놓을
든든
캘리포니아
하도록
아바
align
장미
정치를
능력은
손쉽
##EM
유성
사태를
##구성
사나
##업무
##시기
반찬
배후
##투쟁
##의료
더더
만성
1995
똑똑
관계없이
일환으로
투기
성폭
연구위원
##스피
##수입
챔피언십
##단에서
자사
도덕적
최순실
인터뷰를
돌아갈
논의가
##주교
괜히
##월드컵
고조
속한
##테이션
##셨습니다
연도
임의
철회
습격
달했다
##라이트
글쓰
##돈을
환경에
##환은
적용해
##만원의
참전
작곡가
승부를
##orea
##곳에
돈은
소설가
공존
Le
이메
골을
전력을
임진
벌금
##디는
상하
실정이다
##년을
갑옷
브루
총을
##리케이션
정책이
인근에
##뉴얼
방금
수강
백제
슈팅
민감
의미는
겪은
김모
##편이
멘토
저하
##ky
시절에
필요성을
때면
1500
예정인
평일
##으신
##OD
말해서
극대화
교섭
사용하여
몰락
강제로
4명
지키기
상용
사건으로
기업들의
되었다고
낭비
살기
가지를
강철
아테
##위권
방패
최저임금
##체인
다닌
주인공은
Fate
이번이
##효율
##레가
마블
프로게이머
편의점
이어진다
공시
내다봤다
##거라
##로만
지위를
가득한
##무성
조건이
인테리어
가이
불필
마시는
집중적으로
여는
아니며
wikim
전반적인
사진이
돌이
앞장서
않았습니다
벌어지는
##감사
거래를
일산
불펜
급등
동영
만만치
9개
##키스탄
기록하고
구할
불량
주무
무릎을
맡겨
빛의
##억원이
조화
위주의
AD
##커녕
시카
##창조
##판으로
원인은
##캠프
업체가
카운터
전반에
##익을
책임이
추첨
자영업
##았기
##그리
##지던
##벽을
##계와
2000년대
사각
파이어
##크스
분석을
##GA
가능하게
소나무
매운
야구선수
##해설의원
티비조선해설의원
걸까
억지로
콘셉
비슷하게
##드릴
중국을
느낀다
공기업
나노
스킬을
파격
캐스팅
칼럼
##신과
사랑은
##해준
##aily
##게는
##ll
##도어
여성은
메이크업
탈퇴
놀랍
2단계
유나이
박종
개념이
단위로
추상
놓았다
강화하고
대답을
검토하고
3분의
중부
구조조
##수술
부임
세일
에코
오스
유머
조세
##ction
백악
집계됐다
##레는
화장실
반가
##목적
##롭다
뚜렷한
행사에
도중에
귀엽
아산
알레
##67
정도에
디자인을
방식은
##보에
비평
요소를
##란한
브랜드를
덕분
내려다
참여했다
Mar
##가리
##베리
박사는
야기
창단
이현
기록이
어마
진행했다
##체와
좋아서
어째서
약을
거북
김선
쓰인다
작품이다
##나라의
그림자
금메달을
대학을
중시
서면
발견된
##금지
무시하고
용역
실수를
보건복지
##문과
차가운
느껴지는
상을
##운드를
비결
싶어요
##타자
시원한
다닐
Ph
당사자
##왕을
성을
은혜
돌아오는
후계
##형태
4분기
##지노
게이트
20분
기대할
##언을
교수의
금융감독
상대방의
##필드
##ike
해결하기
펼쳤다
쌓여
125
##정지
재판부는
어느정도
파주
제외하고는
##루는
참가한
학살
##더라면
말레이시아
조별
##오염
예의
119
나타냈다
돼야
지원한다
말라고
휘두
아카데미
1994
##들한테
움직임이
매출액
달래
##기술을
세력이
제작한
자를
##하되
현실적으로
때와
##측이
정리해
##30분
2세
##cc
크지
본사
상인
##LS
이라면서
세계가
공룡
콘텐츠를
통증
##겠지요
주방
아줌
오류
발로
결정할
투자자
않나
나눌
##과정을
##신으로
##야의
톡톡
##보이
권장
검사를
선수를
손쉽게
잇따
아르바
LG전자
쉽고
##산과
구체적
신형
투자하는
에어컨
알겠습니다
엉뚱
##대회에서
넘쳐
가깝다
##타입
쫓겨
1996
새정치민주연합
##곳을
실질적으로
국경
부수
스틸
배상
달라진
홍준표
일고
각오
김주
만들어야
담보
##PGA
##디자인
저의
##요금
특혜
대놓고
이치
국토교통
##보장
밀양
내걸
빠졌다
##네마
전국의
##는지는
##부채
경북도
경남도
##공화국
걸릴
##임에
학생부
내어
보강
친구들과
좀처럼
어드
##500
반란
수소
마신
##저리
인지도
##락이
맞물
20세기
교차
##군으로
일제히
곳곳에서
김준
않았기
한편으로는
감소했다
먹지
해킹
증시
두려움
트랜
##지주
이루어져
마련이다
처음엔
인턴
##무지
##규칙
남편의
이화
운항
피어
플레이오프
##주의에
작업이
딜러
하천
이외에
실력이
사람에
1등
##음의
조금이라도
베를린
범위를
내용에
시험을
여유가
유우
##유치
포기하고
문이
카라
##되었지만
3점
##전기
클래스
출제
Me
떨어지고
신념
##저우
아내는
많지만
##는지를
발명
##작업
발주
강아지
##변화
JR
방을
##시대의
##우주
5배
이인
##립을
추가바람
하향
했기
19세기
바꿨
##클래
##벨트
radius
전기차
나루
오렌
2px
CV
##진으로
##오면
국민들의
##소시
팬들이
들어서는
공장을
AK
은하
저지른
산업의
##고객
##되었으나
관하여
##테일
하이브리드
재해
속이
##라니
옹호
거뒀다
왔던
##플루
pr
##공정
##노트
입구
준비해
my
##매김
개장
##ade
이르면
듣지
상급
##적으로도
2기
아하
기습
차별화된
개관
이룰
어렵지
추가된
제출한
나머지는
목욕
##PM
북구
이루어지는
보면은
거꾸
기술의
키가
1시
손실을
프랜차이즈
보여줄
어긋
것임을
지상파
흘러나
제네
랜덤
확인한
공격에
발견한
지역이
맛스타그램
나폴
##하우
설탕
벌어졌다
##복이
##계약을
wikimedia
차려
걷는
차로
육상
##ott
##내려
보너스
닮은
호수
경찰의
기업과
##들과는
대회를
않겠다
씨앗
올해의
속을
##스토리
오프닝
##하였는데
이르렀다
Man
##버릴
전함
신도시
클라
##책이
규정을
부회장
##사기
동아일보
알기
마츠
낙찰
단말
1사
##역과
문제점
50대
사고로
듣기
##TI
당하는
청취
##amp
실패한
손해를
클레
쳤다
장비를
위안부
전쟁의
나가고
간섭
애를
꽃을
자리매김
오일
##인력
짐승
카즈
##인지라
옆으로
초콜릿
##티를
지난주
##가면서
안을
행동이
아미
##벤처
수혜
앞을
5명
홈런을
때만
아버지와
학생의
고려대
시절의
것이나
입는
결과로
##키아
안전을
통행
##임대
방식의
현실에
그까
노부
발레
받아들일
pro
장교
넣는
보람
발탁
안경
숨겨진
종전
번이나
포함되어
##72
CCTV
##뱅크
##부처
제안했다
##밥을
양식
##하길
곳도
재미를
삼성은
시그
##모리
##탄이
신선한
##ae
돌격
요청했다
균형을
너무도
받았고
성명
img
##놓는
##병의
##가야
전임
특징은
최하
제2의
돌렸다
생략
하필
##노스
##공개
주장은
##TS
부합
시청률
실존
인정하는
압도적인
BMW
##화에서는
방출
떼어
대다수
##국수
활동하고
온천
원료
코코
시술
주재
친척
인천공항
토로
중산
말투
치솟
지났
불쌍
나오기
이거는
목적은
압축
##데다
산다
매출을
자랑한다
##버드
##69
척추
##만원으로
앉은
아내의
##열이
잃어버린
주의를
이례
하트
차지한
##코올
##글로
불과했다
획기
##사정
변해
슬픈
하나만
##아도
##정부의
누릴
방위
##혹한
수험생
농어
수색
천안함
평소에
##겠소
전방
모두를
사양
구두
##LC
일본인
반격
##현실
돼서
사형
몸은
지적도
900
침대
송파
관련하여
카드가
스프링
합의를
##행위를
선거에
캠핑
탄소
부르고
##금과
있거든요
##기며
봉인
소집
이렇듯
##발로
교회의
휴대전화
비행기
환승
사자
이경
연결하는
낸다
필연
날카로운
놓인
진행됐다
의미의
##나기
##검을
정류
손실
휩싸
법이
보여줬다
아쿠
멈춰
##브를
표현하는
전투를
함으로써
오케
##주의와
진행될
프로젝트를
샌드
##주의가
##거리고
##OW
사랑과
신학
##석에서
바라보며
해준다
떠날
##stagram
##종일
발음
##만9
소리로
##르면서
##빛이
SR
임차
대표를
거라
계층
캐스터
대여
대고
저주
##구니
얼굴은
리뷰
돌고
##전철
사용이
복용
서울에
삼국지
어린이집
확대해
쿠키
중국인
체감
긍정적
집회
반갑
안티
모른다는
아랫
##브랜드
##구치
Ad
살던
또다른
설명할
##비율
프란
독도
학생은
본다면
타율
미용
공헌
##하늘
증대
강렬한
##백이
##으라고
줄이
개인이
일과
##신고
##자키
별도
이식
15년
인류의
외곽
##전지
##강의
지칭
옮긴
##롭지
국민을
심심
엘리트
국민연금
##ivers
불황
##들에게도
리모델
오프라인
##방지
##값을
광복
성숙
참석해
폭로
이별
##만달러
지역구
특수한
출동
내용으로
구리
납득
##are
준비한
심리적
물품
그토록
앞세워
프로필
조건으로
기절
인물이다
##업체인
##기게
##중이
##enter
대표이사
일련의
일주
올해도
데도
재고
엄마의
불안한
맞을
표명
박원
베이비
휩쓸
##어머니
가드
##우면
##견이
미국을
직접적으로
나누고
1승
가지로
1986년
쏘아
##ics
박찬
대신에
##십니다
1부
어렵고
격투
자신만의
여기까지
보러
##여름
진압
걷어
때를
합법
밖의
내부의
일상생활
##확인
거꾸로
##멘트
##대회를
헌법재판
대동
박주
##정보를
그보다
배송
일으키는
한명
##작은
##질로
거점
날씨가
헌신
제갈
모스크
작고
인물로
요인이
##42
방식이다
##사리
가리지
패러디
##했듯이
삶과
받았던
1970년대
##79
##son
플라스틱
손꼽
##본부장
끝났다
##보라
움직일
못했고
벽을
##연합회
수령
좋습니다
##론과
같다고
조상
체제를
죽이고
그늘
##사무소
면적
중에서는
패러다
고가
장거리
##문제를
엘리베이터
해산
위키
우월
흑인
기간을
잠이
##했으면
대학원
A4
##주의는
뜯어
감독을
풀이된다
가지게
예상되는
라틴
도출
시청자
상징하는
일기
CS
ar
1단계
랭크
면이
도시를
것들
충성
언론의
하남
귀가
기적
##작품
스트레스를
전동
이뤄질
공적
되었으며
활발한
사귀
##하십니까
##중의
명에
##능한
하나이다
줄기
부친
루이
이해하기
대출을
##방안
##였어요
##래를
환경이
용기를
확인해
안돼
이유도
지냈
아이스크
타협
태어났다
##각이
##진보
터널
인내
국가를
##문화재
얼어
##동맹
라운드
중세
도의
바이러스
걸렸다
Sch
3가지
혐오
현대중공업
##준이
사소한
공영
이곳을
##반의
신용카드
나라는
##인지를
##orn
왕자
정치가
중대한
경호
인디
멜로
프로모
언론에
##마일
깊게
카나
아니라면
아케
무엇일까
누나
돌진
것이지
##다보니
##공사가
##열에
주자
##교류
어떨까
대미지
대중교통
지나가는
딱딱
폭넓
버릴
한의사
이케
종일
은근히
##제도를
##슨의
##문화를
##MS
아홉
시크
의상
여덟
바이올
먹어야
김천
구역
기술은
##즈와
수차례
##시키며
조약
##들처럼
가방
메르스
##편으로
우호
남편은
##로봇
실시하고
그때는
2로
##란의
1루
##유키
집필
사망한
해를
다채
무사히
##토는
##하자마자
예산이
먹방
포스
##텍스
판결을
전제로
격파
과정은
관심과
낭만
트윈
발표된
##키퍼
년간
사모
고장
##자연
##유통
인천시
미흡
부풀
프로그램은
편안한
어머니를
버섯
싸울
##타수
##미에
연구에
리조
배고
출시된
앞으로는
새삼
일단은
워터
40여
카를
##TO
스탯
##대행
바다를
방침을
##ier
하는가
로버트
선택하는
싶다고
##작이
공허
규정에
크라
최소한의
그제
##포가
##등의
##부담
##집행
두꺼
##적ㆍ
##래의
35px
군데
아래에
노력하고
간절
아니기
##리아의
포스터
거고
돌아다니
##오면서
사원
더더욱
유령
확대를
##신청
##리콘
##숙이
대인
##보의
해당한다
잊어버
연인
##자료를
칼로
강의를
##박이
대부
책상
삽입
많기
메타
스타일을
만기
##화해
##경북
우리나라는
##이야말로
경제를
부상으로
선수들은
##여대
고등학생
가로막
공업
##시죠
농산물
다르지
##고리
이만
상태였다
유비
해결을
해줄
그래야
수익률
##이었으며
방송에서
21세기
코미디
뿌려
##이었을
급히
중개
막강
없었지만
##님과
실적이
우아
달러를
집어넣
교육감
유적
##루미
러시아의
Dr
타락
##베이스
모르겠지만
주제에
컬렉션
절약
선정됐다
녹아
주목할
아빠가
손바닥
분들은
##방어
준수
역사와
묻고
##현대
버프
프로그램에
내며
친구를
지워
##쿼터
부분에서
벤치
##2천
달랐다
##공무원
심지어는
드레
발자
한복
갤러
표면
##국어
##득점
시내버스
중재
박수
수상한
간단하게
중국어
나쁘지
상담을
##조치
씨와
판매를
몸으로
약화
##가가치
우회
##온은
열릴
##츠의
1년간
##트랙
생리
##형과
경기장
항공기
대가로
##라미
프로토
볼넷
빚을
감동을
동계올림픽
##작의
표정이
의원을
거기다
무리가
속속
##매가
강조하고
분석해
인건
책정
올라온
##제국
##시설이
엄격한
예비후보
고기를
피터
플레
##변이
개개
산출
요구에
금요일
웃고
##이었기
대상은
동아리
##싸움
전적으로
어디까지나
증폭
죽인
이동통신
주변을
바와
꿈꾸는
##별한
군대를
##사상
선거를
수월
리스트
1기
##해하는
측에
##대요
전국에서
변화는
방으로
##76
세력을
6천
새마을
##적일
초고
##폰을
승격
##계층
##자리를
짐을
문화체육
Con
온통
20만
##가시
실려
모양이
##결에
적고
우려를
팬들은
루이스
규제를
서정
학교의
시작되었다
전투에서
모금
노리는
떠났
새우
참모
처한
한눈에
##다나
범행
여성을
3조
시작했고
##부품
##츠키
##위원회에
경희
사이를
작사
원가
던진
##건설은
세계로
나뭇
수만
##블록
##블릿
컨테이너
손해배
위생
1군
감탄
##배가
규범
성공할
##서비스를
##널드
행적
특집
상자
올라가는
명은
퍼센트
##기계
왕국
풍요
믿어
##int
##파에
집은
##하기만
토크
총리가
이광
안전하게
메이플
풀려
월간
##조와
고시
##정비
##것을
내기
##주행
키스
지사
과천
##선물
상당수
나서야
안나
주축
급식
흥미를
수단으로
말자
인연
인재를
기업들은
50여
증여
꼽히는
연락을
##하진
오라
위를
##제일
행동에
고지
추산
Ed
일본을
##서에서
시너지
450
시키는
먹었다
봐요
파크
##ude
##곳이
탄력
##자리에
##경기를
##인간
##보게
##84
##블로
받아서
기기
제도가
##청구
##추는
단어를
제품에
인구는
##었는지
주둔
둘러싸고
인스타
돌연
장점을
여인
순간에
1985년
이뤄지지
스노
설명하는
보살
관련해서
되었는데
좋지만
회사에서
MAX
디저
민감한
##줄을
박상
근원
표현이
의견도
의문을
믿지
##티스
포인트를
마이너
##효과를
모조리
영주
조회
꿈이
고립
비례대표
복구
줄곧
마리오
쥐고
심상
관리가
넷째
벨기에
##불이
##사업의
마드리
##리거나
제기되고
지극히
My
라이온
보행
##화장
##간담
##벌이
낮다
개발해
초창
##마와
제치고
시드
요리사
모두에게
인간과
망가
마라톤
##ner
##고사
##든다
이노
##츠는
쓸데
불과한
악의
##파일
##손으로
이세
친구들
고의
근본적으로
조화를
##IST
##뤘다
불만이
나무를
##설계
당하고
주위를
##저런
공정거래
재빨리
허브
강조한
##피니
패키지
설립된
적자
드문
참여하고
자세로
매진
##오일
정부에서
경찰청
병을
살리기
##종으로
##맛이
##ECD
##님께
##시의회
폴리
##조한
다리가
만드
강좌
##기면
실효
생각으로
다큐멘
##느니
##린다는
##환의
시민사회
지분을
내놓고
##전도
날아가
##세서
##경찰청
##비도
인문학
부산시
##사업은
나나
외계
##절이
##캐피
##일지
익숙한
오이
검을
관행
길러
뇌물
##속이
중형
플레이를
##미로
같애요
##ife
검정
##만으로는
정당한
영등
##위해
추진해
사제
icon
떠오르는
##ank
강서
시흥
##농업
만들어서
역사는
있습니까
참사
불투
##0000
며느
소비자의
전도
tv
원시
대주
##ET
밤을
##줘서
클릭
들어왔
중학생
진행한
화력
거라는
마루
야채
##준의
무방
부재
##박사
안에는
1일부터
##원들은
간판
군수
설명하고
공격력이
저자
전과
LCD