[PAD]
[UNK]
[CLS]
[SEP]
[MASK]
!
"
#
$
%
&
'
(
)
*
+
,
-
.
/
0
1
2
3
4
5
6
7
8
9
:
;
<
=
>
?
@
A
B
C
D
E
F
G
H
I
J
K
L
M
N
O
P
Q
R
S
T
U
V
W
X
Y
Z
[
\
]
^
##
`
a
b
c
d
e
f
g
h
i
j
k
l
m
n
o
p
q
r
s
t
u
v
w
x
y
z
{
|
}
~
¡
¢
£
¥
§
©
«
¬
®
°
±
²
³
´
µ
¶
·
¸
¹
º
»
¼
½
¾
¿
À
Á
Â
Ä
Å
Æ
Ç
È
É
Í
Ð
Ó
Ö
×
Ø
Ú
Ü
Þ
ß
à
á
â
ã
ä
å
æ
ç
è
é
ê
ë
ì
í
î
ï
ð
ñ
ò
ó
ô
õ
ö
÷
ø
ù
ú
û
ü
ý
þ
Ā
ā
ă
ą
ć
ĉ
Č
č
Đ
đ
ē
ĕ
ė
ę
ě
ĝ
ğ
ī
ĭ
İ
ı
ł
ń
ŋ
Ō
ō
ŏ
Œ
œ
ř
Ś
ś
ŝ
Ş
ş
Š
š
ũ
ū
ŭ
ż
ž
ſ
ƒ
ơ
ư
ƿ
ǎ
ǐ
ǒ
ǔ
ǣ
ș
Ȝ
ȝ
ȳ
ɐ
ɑ
ɔ
ɕ
ə
ɛ
ɡ
ɨ
ɪ
ɯ
ɹ
ɾ
ʁ
ʃ
ʊ
ʌ
ʑ
ʒ
ʔ
ʰ
ʲ
ʻ
ʼ
ˈ
ː
˚
́
̃
̍
̚
̞
̯
͡
΄
Α
Β
Γ
Δ
Ε
Θ
Ι
Κ
Λ
Μ
Ν
Ο
Π
Ρ
Σ
Τ
Υ
Φ
Χ
Ψ
Ω
ά
έ
ή
ί
α
β
γ
δ
ε
ζ
η
θ
ι
κ
λ
μ
ν
ξ
ο
π
ρ
ς
σ
τ
υ
φ
χ
ψ
ω
ό
ύ
ώ
Ё
А
Б
В
Г
Д
Е
Ж
З
И
К
Л
М
Н
О
П
Р
С
Т
У
Ф
Х
Ц
Ч
Ш
Э
Ю
Я
а
б
в
г
д
е
ж
з
и
й
к
л
м
н
о
п
р
с
т
у
ф
х
ц
ч
ш
щ
ъ
ы
ь
э
ю
я
ё
і
ј
ѣ
қ
ң
ү
ә
ө
ա
ե
ի
կ
մ
յ
ն
ո
ս
վ
տ
ր
ւ
ָ
ּ
א
ב
ד
ה
ו
ח
י
כ
ל
ם
מ
ן
נ
ס
ע
פ
ק
ר
ש
ת
آ
أ
إ
ئ
ا
ب
ة
ت
ج
ح
خ
د
ذ
ر
ز
س
ش
ص
ط
ع
غ
ـ
ف
ق
ك
ل
م
ن
ه
و
ى
ي
َ
ُ
ِ
ّ
ْ
پ
ک
گ
ی
ं
ः
क
ग
च
ज
ण
त
द
ध
न
प
ब
भ
म
य
र
ल
व
श
ष
स
ह
ा
ि
ी
ु
े
ो
्
॥
া
்
ก
ค
ง
จ
ช
ด
ต
ท
น
บ
ป
พ
ม
ย
ร
ล
ว
ส
ห
อ
ะ
ั
า
ิ
ี
ื
ุ
เ
ไ
็
่
้
์
๎
་
ა
ე
ი
ლ
ო
რ
ს
ᄀ
ᄂ
ᄃ
ᄅ
ᄆ
ᄇ
ᄉ
ᄋ
ᄌ
ᄎ
ᄒ
ᄠ
ᄫ
ᄭ
ᄯ
ᅀ
ᅌ
ᅡ
ᅥ
ᅧ
ᅩ
ᅮ
ᅳ
ᅵ
ᆞ
ᆡ
ᆨ
ᆫ
ᆯ
ᆷ
ᆺ
ᆼ
ᇰ
្
ᠠ
ᠣ
ᠨ
ᠪ
ᠭ
ᠮ
ᠯ
ᠰ
ᡝ
ᡠ
ᡤ
ᡥ
ᡳ
ᡵ
ḍ
ḥ
ḳ
ṇ
ṣ
ṭ
ạ
ả
ầ
ẽ
ế
ễ
ệ
ị
ộ
ἀ
Ἀ
ἐ
ἰ
ὁ
ὐ
ὰ
ὶ
ὸ
ῆ
ῖ
ῦ
ῶ
‐
‑
‒
–
—
―
‘
’
‚
“
”
„
†
‡
•
․
‥
…
‧
′
″
‹
›
※
⁊
ⁿ
₡
₩
€
℃
ℓ
™
⅓
⅔
Ⅰ
Ⅱ
Ⅲ
Ⅳ
Ⅴ
Ⅵ
Ⅶ
Ⅷ
Ⅸ
Ⅹ
←
↑
→
↓
↔
↕
↖
↗
↘
↙
↻
⇒
⇓
⇔
∀
−
∙
√
∞
∥
∼
≈
≒
≠
≤
≥
≪
≫
⊙
⋅
⋯
⌀
①
②
③
④
⑤
⑥
⑦
⑧
⑨
⑩
⑫
⑮
⑲
⑶
⑸
Ⓐ
ⓐ
ⓑ
ⓒ
ⓗ
ⓚ
ⓢ
─
━
│
┃
┏
┓
└
┗
┛
├
┠
┣
┼
▀
▄
█
░
▒
▓
■
□
▣
▨
▩
▲
△
▶
▷
▸
▼
▽
◀
◁
◆
◇
◈
◉
○
◎
●
◐
◑
◦
◯
◾
★
☆
☎
☜
☞
☠
☭
♀
♂
♠
♡
♣
♤
♥
♦
♧
♨
♪
♬
♭
♯
⚭
✅
✓
✦
✨
✴
❤
➡
⟪
⟫
⠄
⣿
⬅
⭐
、
。
〃
々
〇
〈
〉
《
》
「
」
『
』
【
】
〓
〔
〕
〜
ぁ
あ
ぃ
い
ぅ
う
ぇ
え
ぉ
お
か
が
き
ぎ
く
ぐ
け
げ
こ
ご
さ
ざ
し
じ
す
ず
せ
ぜ
そ
ぞ
た
だ
ち
ぢ
っ
つ
づ
て
で
と
ど
な
に
ぬ
ね
の
は
ば
ぱ
ひ
び
ぴ
ふ
ぶ
ぷ
へ
べ
ぺ
ほ
ぼ
ぽ
ま
み
む
め
も
ゃ
や
ゅ
ゆ
ょ
よ
ら
り
る
れ
ろ
わ
ゐ
を
ん
ァ
ア
ィ
イ
ゥ
ウ
ェ
エ
ォ
オ
カ
ガ
キ
ギ
ク
グ
ケ
ゲ
コ
ゴ
サ
ザ
シ
ジ
ス
ズ
セ
ゼ
ソ
ゾ
タ
ダ
チ
ッ
ツ
ヅ
テ
デ
ト
ド
ナ
ニ
ヌ
ネ
ノ
ハ
バ
パ
ヒ
ビ
ピ
フ
ブ
プ
ヘ
ベ
ペ
ホ
ボ
ポ
マ
ミ
ム
メ
モ
ャ
ヤ
ュ
ユ
ョ
ヨ
ラ
リ
ル
レ
ロ
ワ
ヲ
ン
ヴ
ヶ
・
ー
ㄧ
ㄨ
ㄱ
ㄲ
ㄳ
ㄴ
ㄵ
ㄶ
ㄷ
ㄸ
ㄹ
ㄺ
ㄻ
ㄼ
ㄽ
ㄾ
ㄿ
ㅀ
ㅁ
ㅂ
ㅃ
ㅄ
ㅅ
ㅆ
ㅇ
ㅈ
ㅉ
ㅊ
ㅋ
ㅌ
ㅍ
ㅎ
ㅏ
ㅐ
ㅑ
ㅒ
ㅓ
ㅔ
ㅕ
ㅖ
ㅗ
ㅘ
ㅙ
ㅚ
ㅛ
ㅜ
ㅝ
ㅞ
ㅟ
ㅠ
ㅡ
ㅢ
ㅣ
ㅤ
ㆍ
㈜
㎏
㎑
㎒
㎚
㎜
㎝
㎞
㎟
㎡
㎢
㎥
㎾
一
丁
七
万
丈
三
上
下
不
与
丑
专
且
世
丘
丙
业
东
丞
両
並
丨
个
中
串
丶
丸
丹
为
主
丽
丿
乃
久
么
义
之
乎
乐
乗
乘
乙
九
乞
也
习
乱
乳
乾
亀
亂
了
予
争
事
二
于
云
互
五
井
亚
些
亜
亞
亡
交
亥
亦
亨
享
京
亭
亮
人
什
仁
仇
今
介
从
仏
仔
仕
他
付
仙
代
令
以
们
仮
仰
仲
件
任
份
企
伊
伍
伎
伏
伐
休
会
伝
传
伯
伴
伸
似
伽
但
位
低
住
佐
佑
体
何
余
佛
作
你
佳
使
來
例
侍
供
依
価
侯
侵
便
係
俊
俗
保
俠
信
修
俱
俺
倉
個
倍
們
倒
候
借
値
倫
倭
倶
假
偉
偏
做
停
健
側
偵
偶
偽
傅
傍
傑
傘
備
催
傲
傳
傷
傾
僉
働
像
僕
僚
僞
僧
價
儀
億
儉
儒
儚
償
優
儿
允
元
兄
充
兆
先
光
克
免
兎
児
兒
党
兜
入
內
全
兩
兪
八
公
六
兮
兰
共
关
兴
兵
其
具
典
兼
冀
内
円
冊
再
冒
冗
写
军
冠
冥
冨
冬
冰
冲
冴
冶
冷
凄
准
凉
凌
凍
凛
凝
几
凡
処
凪
凰
凱
凵
凶
凸
凹
出
击
函
刀
刃
分
切
刊
刑
列
刘
初
判
別
利
别
到
制
券
刹
刺
刻
則
削
前
剛
剣
副
割
創
劃
劇
劉
劍
劑
力
功
加
务
劣
动
助
努
劫
労
効
勃
勅
勇
勉
勒
動
勘
務
勝
勞
募
勢
勤
勲
勳
勸
勿
匂
包
匕
化
北
匠
匡
匹
区
医
區
十
千
升
午
半
卍
华
卑
卒
卓
協
单
南
単
博
卜
卞
占
卡
卫
卯
印
危
即
却
卵
卷
卽
卿
厂
厄
厚
原
厨
厭
厳
厶
去
县
参
參
又
叉
及
友
双
反
収
发
叔
取
受
变
叡
叢
口
古
句
叩
只
叫
召
可
台
叱
史
右
叶
号
司
吃
各
合
吉
同
名
后
吏
吐
向
吗
君
吟
否
吧
含
听
吳
吸
吹
吾
呀
呂
呉
告
呑
员
呢
周
呪
味
呼
命
咆
和
咲
咸
哀
品
哈
哉
哎
員
哥
哦
哪
哭
哲
唄
唇
唐
唯
唱
商
啊
問
啓
啦
善
喆
喉
喚
喜
喝
喧
喪
喬
單
喰
営
嗚
嗣
嗯
嘆
嘉
嘘
嘩
嘻
嘿
噂
噛
器
嚴
囗
囚
四
回
因
团
団
园
困
囲
図
固
国
圈
國
圍
園
圓
圖
團
土
圣
圧
在
圭
地
场
址
坂
均
坊
坐
坡
坤
坦
坪
垂
垈
型
垢
垣
埋
城
域
執
培
基
埼
堀
堂
堅
堕
堡
堤
堯
報
場
塊
塔
塗
塘
塚
塞
塩
塵
塾
境
墓
増
增
墨
墳
壁
壇
壊
壓
壞
壤
士
壬
壮
壯
声
壱
売
壹
壺
壽
处
备
変
夏
夕
外
多
夜
夢
大
天
太
夫
央
失
头
夷
奇
奈
奉
奎
奏
契
奔
奥
奧
奪
奭
奮
女
奴
她
好
如
妃
妄
妓
妖
妙
妬
妹
妻
妾
姉
始
姐
姑
姓
委
姚
姜
姦
姫
姬
姿
威
娘
娜
婁
婆
婚
婢
婦
媒
媛
媤
嫁
嫉
嫌
嫡
嬉
嬢
嬪
子
孔
字
存
孝
孟
季
孤
学
孩
孫
學
宀
宁
宅
宇
守
安
宋
完
宏
宗
官
宙
定
宛
宜
宝
实
実
客
宣
室
宮
宰
害
宴
宵
家
宸
容
宿
寂
寄
寅
密
寇
富
寒
寛
寝
察
寡
實
寧
審
寫
寬
寮
寵
寶
寸
对
寺
対
寿
封
専
射
将
將
專
尉
尊
尋
對
導
小
少
尔
尖
尙
尚
尤
就
尸
尹
尺
尻
尼
尽
尾
局
居
屈
届
屋
屍
屑
展
屛
属
屠
層
履
屬
屯
山
岐
岛
岡
岩
岬
岳
岸
峙
峡
峨
峯
峰
峴
島
峻
崇
崎
崔
崖
崩
嵌
嵐
嶋
嶺
嶽
巖
川
州
巡
巣
工
左
巧
巨
巫
差
己
已
巳
巴
巻
巾
市
布
帆
师
希
帖
帝
帥
師
席
帮
帯
帰
帳
帶
常
帽
幀
幅
幌
幕
幡
幢
幣
干
平
年
并
幸
幹
幺
幻
幼
幽
幾
广
庁
広
庄
床
序
应
底
店
庚
府
度
座
庫
庭
庵
庶
康
庸
庾
廃
廉
廊
廟
廢
廣
廳
延
廷
建
廻
廿
开
弁
弄
弋
式
弐
弓
弔
引
弗
弘
弟
张
弥
弦
弩
弱
張
強
强
弼
弾
彈
彌
当
彡
形
彦
彩
彫
彬
彭
彰
影
彳
彷
役
彼
往
征
待
很
律
後
徐
徒
従
得
從
御
徨
復
循
微
徳
徵
德
徹
徽
心
必
忌
忍
志
忘
忙
応
忠
快
念
忽
怎
怒
怖
怜
思
怠
怡
急
性
怨
怪
怯
总
恋
恐
恒
恥
恨
恩
恭
息
恵
悅
悌
悔
悟
悠
患
悦
您
悩
悪
悲
悼
情
惑
惜
惟
惠
惡
惨
惱
想
惹
愁
愉
愍
意
愚
愛
感
愼
慈
態
慎
慕
慢
慣
慧
慮
慰
慶
憂
憎
憐
憑
憤
憧
憩
憲
憶
應
懐
懷
懸
懿
戀
戈
戊
戌
戎
成
我
戒
或
战
戚
戦
戯
戰
戱
戴
戶
戸
戻
房
所
扇
扈
扉
手
才
打
払
托
扮
扱
扶
承
技
抄
把
抑
投
抗
折
抜
択
护
报
披
抱
抵
抹
押
担
拉
拍
拒
拓
拔
拘
拙
招
拜
拝
拠
括
拳
拾
持
指
按
挑
挙
挥
挨
振
挺
捕
捜
捧
捨
捷
掃
授
掌
排
掘
掛
採
探
接
控
推
掴
揆
描
提
揚
換
握
揮
援
揺
損
携
摂
摘
摠
摩
撃
撒
撫
播
撮
撰
擇
擊
操
擦
擧
擬
攝
支
收
改
攻
放
政
故
效
敌
敍
敎
敏
救
敗
教
敢
散
敦
敬
数
整
敵
敷
數
文
斉
斎
斐
斑
斗
料
斜
斤
斥
斧
斬
断
斯
新
斷
方
於
施
旅
旋
旌
族
旗
无
既
旣
日
旦
旧
旨
早
旬
旭
时
旺
昆
昇
昊
昌
明
昏
易
昔
星
映
春
昧
昨
昭
是
昼
時
晃
晉
晋
晚
晟
晦
晩
普
景
晴
晶
智
暁
暇
暑
暖
暗
暦
暮
暴
曆
曇
曉
曖
曜
曰
曲
更
書
曹
曺
曼
曽
曾
替
最
會
月
有
朋
服
朔
朗
望
朝
期
朧
木
未
末
本
札
术
朱
朴
机
朽
杉
李
杏
材
村
杓
杖
杜
束
条
来
杨
杭
杯
杰
東
松
板
析
枕
林
枚
果
枝
枯
架
柄
柊
柏
某
染
柔
柚
柱
柳
柴
査
柿
栄
栖
栗
栞
校
栢
株
样
核
根
格
桂
桃
案
桐
桑
桓
桜
桥
梁
梅
梓
條
梦
梧
梨
械
梵
梶
棄
棋
棒
棘
棚
棟
森
棲
棺
植
椎
検
椿
楊
楓
楚
楠
業
極
楼
楽
榊
榜
榮
槃
構
槌
槍
槐
様
槻
樂
樊
樋
樓
標
樞
模
樣
権
横
樹
橋
橘
橙
機
橫
檀
檎
檜
檢
櫓
櫻
欅
權
欠
次
欢
欣
欧
欲
欺
欽
歌
歐
歓
歡
止
正
此
步
武
歩
歪
歯
歲
歳
歴
歷
歸
歹
死
殊
残
殖
殘
段
殷
殺
殿
毅
毋
母
毎
每
毒
比
毘
毛
氏
民
气
気
氣
水
氷
永
汀
汁
求
汉
汐
汗
汚
汝
江
池
汪
汰
決
汽
沃
沈
沌
沒
沖
沙
沛
没
沢
沫
河
沸
油
治
沼
沿
況
泉
泊
法
泗
泡
波
泣
泥
注
泰
泳
洋
洗
洙
洛
洞
津
洪
洲
活
派
流
浄
浅
浙
浚
浜
浦
浩
浪
浮
浴
海
浸
涅
消
涉
涙
涯
液
涼
淀
淑
淚
淡
淨
淫
淮
深
淳
淵
混
淸
添
清
済
渉
渋
渓
渕
渚
減
渠
渡
渦
温
測
港
游
渾
湊
湖
湘
湧
湯
湾
満
源
準
溜
溝
溟
溢
溪
溫
溶
溺
滅
滋
滑
滝
滿
漁
漂
漆
漏
演
漠
漢
漫
漸
潔
潘
潛
潜
潟
潤
潭
潮
潰
澄
澈
澤
激
濁
濃
濟
濡
濤
濬
濱
瀬
灌
灘
灣
火
灯
灰
灵
灼
災
炎
炫
炭
炮
炯
炳
炸
点
為
烈
烏
焉
焔
無
焦
焰
然
焼
煉
煌
煙
煥
照
煩
熊
熙
熟
熱
燃
燈
燒
燕
營
燦
燮
爆
爐
爛
爪
爭
爱
爲
爵
父
爺
爻
爽
爾
片
版
牌
牙
牛
牝
牟
牡
牢
牧
物
特
犬
犯
状
狀
狂
狄
狐
狗
狙
狩
独
狭
狼
猛
猪
猫
猶
猿
獄
獅
獣
獨
獲
獸
獻
玄
率
玉
王
玖
玩
现
玲
珉
珍
珠
珪
班
現
球
理
琉
琪
琳
琴
瑛
瑜
瑞
瑠
璃
璋
璧
環
璽
瓊
瓜
瓦
瓶
甁
甄
甘
甚
甜
生
産
用
甫
田
由
甲
申
电
男
町
画
界
畏
畑
留
畜
畠
畢
略
番
畫
異
畵
當
畿
疋
疏
疑
疫
疲
疾
病
症
痕
痛
痴
療
癒
癖
癡
癸
発
登
發
白
百
的
皆
皇
皐
皓
皮
皿
盆
盈
益
盗
盛
盜
盟
盡
監
盤
盧
目
盲
直
相
盾
省
眉
看
県
眞
真
眠
眩
眺
眼
着
睡
督
睦
睿
瞋
瞬
瞳
瞻
矛
矢
矣
知
短
石
砂
研
砕
砲
破
硏
硝
硬
碎
碑
碧
碩
確
磁
磐
磨
磯
示
礼
社
祀
祇
祈
祐
祖
祚
祝
神
祠
祥
票
祭
祿
禁
禄
禅
禍
禎
福
禦
禧
禪
禮
禹
禾
禿
秀
私
秉
秋
种
科
秒
秘
租
秦
秩
称
移
稀
稅
程
稚
種
稱
稲
稷
稽
稿
穀
穂
穆
積
穏
穢
穴
究
空
穿
突
窓
窟
窪
窮
立
站
竜
竟
章
童
端
競
竹
笑
笛
笠
符
第
笹
筆
等
筋
筑
筒
答
策
筵
箕
算
管
箭
箱
節
範
篇
築
篠
篤
簡
簿
籍
籠
米
粉
粋
粒
粟
粹
精
糖
糧
糸
系
紀
約
紅
紋
納
純
紗
紙
級
紛
素
紡
索
紫
累
細
紳
紹
紺
終
絃
組
絆
経
結
絡
給
統
絲
絵
絶
絹
綏
經
継
続
綜
綠
維
綱
網
綴
綺
綾
綿
緊
緋
総
緑
緒
緖
線
締
緣
編
緯
練
縁
縄
縛
縣
縫
縮
縱
總
績
繁
繋
織
繚
繰
繼
續
纏
红
约
级
线
练
组
终
经
结
给
缶
网
罗
罠
罪
置
罰
署
羅
羊
美
群
義
羲
羽
翁
翊
習
翔
翠
翰
翻
翼
耀
老
考
者
耆
而
耐
耕
耳
耶
耽
联
聖
聚
聞
聡
聯
聰
聲
聴
職
聽
聿
肅
肇
肉
肌
肖
肝
股
肥
肩
育
胆
背
胎
胜
胞
胡
胤
胸
能
脂
脅
脇
脈
脚
脫
脱
脳
腐
腕
腦
腰
腸
腹
膳
臓
臣
臥
臨
自
臭
至
致
臺
臼
與
興
舊
舌
舍
舎
舒
舛
舜
舞
舟
航
般
舰
船
艇
艦
艮
良
色
艶
艸
艾
节
芙
芝
芦
花
芳
芸
芹
芽
苏
苑
苗
若
苦
英
茂
范
茅
茉
茜
茨
茶
荀
草
荊
荒
荘
荣
荷
荻
荼
莉
莊
莫
菅
菊
菌
菓
菜
菩
華
菱
菴
萊
萌
萩
萬
萱
落
葉
著
葛
董
葬
葵
蒙
蒲
蒸
蒼
蓋
蓬
蓮
蔚
蔡
蔣
蔭
蔵
蕃
蕩
蕭
蕾
薄
薇
薔
薙
薛
薩
薫
薬
薰
藍
藏
藝
藤
藥
藩
藻
蘆
蘇
蘊
蘭
虎
虐
處
虚
虛
虜
虞
號
虫
虹
虽
蛇
蛋
蛍
蛛
蜀
蜂
蜘
蜜
蝕
蝦
蝶
融
螺
蟲
蟹
蠻
血
衆
行
衍
術
街
衙
衛
衝
衡
衣
表
衰
衿
袁
袋
袖
被
裁
裂
装
裏
裕
補
裝
裡
裵
裸
製
複
褒
襄
襲
西
要
覆
覇
見
規
視
覚
覧
親
観
覺
覽
觀
见
视
觉
角
解
触
觸
言
計
討
訓
託
記
訟
訣
訪
設
許
訳
訴
訶
註
証
詔
評
詞
詠
試
詩
詰
話
詳
誇
誉
誌
認
誓
誕
誘
語
誠
誤
說
説
読
誰
課
調
談
請
諏
論
諡
諦
諫
諭
諱
諸
諺
謀
謂
謎
謙
講
謝
謨
謹
證
識
譚
譜
警
譯
議
譲
護
讀
讃
變
讐
讓
讚
计
让
记
许
话
该
语
说
请
谢
谷
豆
豊
豐
豕
豚
象
豪
豫
豹
貝
貞
負
財
貢
貧
貨
貪
貫
責
貳
貴
買
貸
費
賀
資
賈
賊
賓
賛
賜
賞
賢
賣
賤
賦
質
賭
賴
贈
贊
赤
赦
赫
走
起
超
越
趙
趣
足
跋
跑
距
跡
路
跳
踊
踏
蹟
蹴
躍
身
車
軌
軍
軒
軟
転
軸
軽
載
輔
輕
輝
輩
輪
輸
輿
轉
轟
车
辛
辞
辟
辨
辭
辯
辰
辱
農
辵
边
辺
辻
込
达
辿
迅
过
迎
运
近
返
还
这
进
远
连
迦
迪
迫
述
迷
追
退
送
逃
逆
透
逐
途
這
通
逝
速
造
逢
連
週
進
逸
遁
遂
遅
遇
遊
運
遍
過
道
達
違
遙
遜
遞
遠
遣
遥
適
遭
遮
遲
遵
遷
選
遺
遼
避
還
邉
邊
邑
那
邦
邪
邱
邵
邸
郁
郎
郞
郡
部
郭
郵
郷
都
鄉
鄒
鄕
鄧
鄭
酉
配
酒
酔
酬
酷
酸
醉
醒
醜
醫
采
釈
釋
里
重
野
量
金
釜
針
釣
鈍
鈴
鉄
鉉
鉢
銀
銃
銅
銘
銭
鋒
鋭
鋼
錄
錢
錦
錫
錬
錯
録
鍊
鍋
鍛
鍵
鍾
鎌
鎔
鎖
鎧
鎬
鎭
鎮
鏞
鏡
鐘
鐵
鑑
铁
错
镇
長
长
門
閃
閉
開
閑
間
閔
関
閣
閤
閭
閻
闇
闕
闘
關
门
闪
问
间
阜
队
阪
阮
防
阳
阿
陀
附
际
陈
降
限
陜
陟
院
陣
除
陪
陰
陳
陵
陶
陸
険
陽
隅
隆
隊
隋
階
随
隔
隙
際
障
隠
隣
隨
險
隱
隷
隹
隼
难
雀
雁
雄
雅
集
雍
雑
雕
雙
雛
雜
離
難
雨
雪
雫
雲
零
雷
電
需
震
霊
霍
霖
霜
霞
霧
露
霸
靈
靑
青
靖
静
靜
非
面
革
靴
鞍
鞠
鞭
韋
韓
音
韻
響
頁
頂
頃
項
順
須
頌
預
頑
頓
領
頬
頭
頼
題
額
顔
顕
願
類
顧
顯
風
风
飛
飞
食
飮
飯
飲
飼
飽
飾
養
餓
餘
館
首
香
馨
馬
馮
駄
駅
駆
駐
駒
駕
駿
騎
騒
験
騙
驅
驗
驚
驛
驪
马
骨
骸
體
高
髙
髪
髮
鬥
鬪
鬱
鬼
魂
魄
魅
魏
魔
魚
魯
鮮
鱗
鱼
鳥
鳩
鳳
鳴
鴨
鴻
鵬
鶴
鷄
鷲
鷹
鷺
鹵
鹽
鹿
麒
麗
麟
麥
麦
麻
黃
黄
黍
黎
黑
黒
默
黙
點
黨
鼎
鼓
鼠
鼻
齊
齋
齒
齡
龍
龙
龜
가
각
간
갇
갈
갉
감
갑
값
갓
갔
강
갖
갗
같
갚
갛
개
객
갠
갤
갬
갭
갯
갰
갱
갸
갹
걀
걍
걔
거
걱
건
걷
걸
검
겁
것
겄
겅
겉
겊
겋
게
겍
겐
겔
겜
겟
겠
겡
겨
격
겪
견
결
겸
겹
겻
겼
경
곁
계
곗
고
곡
곤
곧
골
곪
곯
곰
곱
곳
공
곶
과
곽
관
괄
괌
광
괘
괜
괭
괴
괵
괸
굇
굉
교
굣
구
국
군
굳
굴
굵
굶
굼
굽
굿
궁
궂
궃
궈
권
궐
궜
궤
궨
귀
귄
귈
귐
귓
규
균
귤
귯
그
극
근
글
긁
금
급
긋
긍
긔
기
긱
긴
길
김
깁
깃
깄
깅
깊
까
깍
깎
깐
깔
깜
깝
깟
깠
깡
깥
깨
깬
깰
깻
깼
깽
꺄
꺅
꺠
꺼
꺽
꺾
껀
껄
껌
껍
껏
껐
껑
께
껫
껴
껸
꼈
꼐
꼬
꼭
꼰
꼴
꼼
꼽
꼿
꽁
꽂
꽃
꽈
꽉
꽐
꽝
꽤
꽥
꽹
꾀
꾐
꾸
꾹
꾼
꿀
꿇
꿈
꿉
꿋
꿍
꿎
꿏
꿔
꿨
꿩
꿰
뀌
뀐
뀔
뀜
뀝
뀨
끄
끈
끊
끌
끓
끔
끗
끙
끝
끼
끽
낀
낄
낌
낍
낑
나
낙
낚
난
날
낡
남
납
낫
났
낭
낮
낯
낱
낳
내
낵
낸
낼
냄
냅
냇
냈
냉
냐
냑
냔
냘
냠
냥
너
넉
넋
넌
널
넒
넓
넘
넙
넛
넜
넝
넣
네
넥
넨
넬
넴
넵
넷
넸
넹
녀
녁
년
념
녔
녕
녘
녜
녠
노
녹
논
놀
놈
놉
놋
농
높
놓
놔
놨
뇌
뇨
뇰
뇽
누
눅
눈
눌
눔
눕
눗
눙
눠
눴
뉘
뉜
뉠
뉴
뉵
늄
늉
느
늑
는
늘
늙
늠
능
늦
늪
늬
니
닉
닌
닐
님
닙
닛
닝
닢
다
닥
닦
단
닫
달
닭
닮
닯
닳
담
답
닷
당
닻
닼
닿
대
댁
댄
댈
댐
댑
댓
댔
댕
댜
더
덕
던
덜
덟
덤
덥
덧
덩
덫
덮
데
덱
덴
델
뎀
뎁
뎃
뎅
뎌
뎐
뎠
뎨
뎬
도
독
돈
돋
돌
돔
돕
돗
동
돚
돛
돠
돡
돤
돼
됐
되
된
될
됨
됩
됬
됭
됴
두
둑
둔
둘
둠
둡
둣
둥
둬
뒀
뒈
뒤
뒬
뒷
뒹
듀
듄
듈
듐
드
득
든
듣
들
듦
듬
듭
듯
등
듸
디
딕
딘
딛
딜
딤
딥
딧
딨
딩
딪
딫
따
딱
딴
딸
땀
땃
땄
땅
땋
때
땐
땔
땜
땠
땡
떄
떠
떡
떤
떨
떫
떳
떴
떵
떻
떼
떽
뗀
뗄
뗏
뗐
또
똑
똘
똠
똥
똬
뚜
뚝
뚠
뚤
뚫
뚱
뛰
뛴
뛸
뜀
뜨
뜩
뜬
뜯
뜰
뜷
뜸
뜻
띄
띈
띌
띔
띠
띤
띨
띵
라
락
란
랄
람
랍
랏
랐
랑
랖
랗
래
랙
랜
랠
램
랩
랫
랬
랭
랴
략
랸
량
러
럭
런
럴
럼
럽
럿
렀
렁
렇
레
렉
렌
렐
렘
렙
렛
렝
려
력
련
렬
렴
렵
렷
렸
령
례
롄
로
록
론
롤
롬
롭
롯
롱
롸
뢰
뢴
룀
료
룔
룡
루
룩
룬
룰
룸
룹
룻
룽
뤄
뤘
뤠
뤼
뤽
륀
륄
륌
류
륙
륜
률
륨
륭
르
륵
른
를
름
릅
릇
릉
릎
리
릭
린
릴
림
립
릿
링
맆
마
막
만
많
맏
말
맑
맘
맙
맛
망
맞
맟
맡
맢
맣
매
맥
맨
맬
맴
맵
맷
맸
맹
맺
먀
먄
머
먹
먼
멀
멈
멋
멍
멎
멓
메
멕
멘
멜
멤
멥
멧
멩
며
멱
면
멸
몄
명
몆
몇
몐
모
목
몫
몬
몰
몸
몹
못
몽
뫄
뫼
묀
묄
묏
묘
묜
묠
묭
무
묵
묶
문
묻
물
묽
뭄
뭇
뭉
뭍
뭐
뭔
뭘
뭡
뭣
뭥
뮈
뮌
뮐
뮤
뮨
뮬
뮴
므
믄
믈
믐
미
믹
민
믿
밀
밈
밉
밋
밌
밍
밎
및
밑
바
박
밖
반
받
발
밝
밞
밟
밤
밥
밧
방
밭
배
백
밴
밸
뱀
뱁
뱃
뱅
뱉
뱌
버
벅
번
벌
범
법
벗
벙
벚
벛
벞
베
벡
벤
벨
벰
벱
벳
벵
벼
벽
변
별
볍
볏
볐
병
볕
볘
볜
보
복
볶
본
볼
봄
봅
봇
봉
봐
봤
봬
뵈
뵐
뵘
뵙
뵤
부
북
분
붇
불
붉
붐
붑
붓
붕
붙
뷁
뷔
뷘
뷜
뷰
뷴
뷸
븀
븅
브
븐
블
븨
비
빅
빈
빌
빔
빕
빗
빙
빚
빛
빠
빡
빤
빨
빰
빳
빴
빵
빻
빼
빽
뺀
뺄
뺌
뺏
뺐
뺑
뺨
뺴
뻐
뻑
뻔
뻗
뻘
뻣
뻤
뻥
뻬
뼈
뼉
뼘
뼛
뽀
뽁
뽈
뽐
뽑
뽕
뾰
뿅
뿌
뿍
뿐
뿔
뿜
뿡
쀼
쁘
쁜
쁠
쁨
쁩
삐
삑
삔
삘
삥
사
삭
삯
산
살
삵
삶
삼
삽
삿
샀
상
샅
새
색
샌
샐
샘
샙
샛
샜
생
샤
샥
샨
샬
샴
샵
샷
샹
샾
섀
섐
섕
서
석
섞
선
섣
설
섬
섭
섯
섰
성
섶
세
섹
센
셀
셈
셉
셋
셌
셍
셔
션
셜
셤
셧
셨
셩
셰
셴
셸
솀
솁
솅
소
속
솎
손
솔
솜
솝
솟
송
솥
솩
솽
쇄
쇠
쇤
쇳
쇼
쇽
숀
숄
숍
숏
숑
수
숙
순
숟
술
숨
숫
숭
숯
숱
숲
숴
쉈
쉐
쉑
쉔
쉘
쉬
쉭
쉰
쉴
쉼
쉽
쉿
슈
슉
슌
슐
슘
슛
슝
스
슥
슨
슬
슭
슴
습
슷
승
슼
슾
시
식
신
싣
실
싫
심
십
싯
싱
싶
싸
싹
싼
쌀
쌈
쌉
쌌
쌍
쌓
쌔
쌕
쌘
쌤
쌩
쌰
썅
써
썩
썬
썰
썸
썹
썻
썼
썽
쎄
쎈
쏘
쏙
쏜
쏟
쏠
쏨
쏭
쏴
쐈
쐐
쐬
쑈
쑤
쑥
쑨
쑹
쒀
쓰
쓱
쓴
쓸
씀
씁
씌
씨
씩
씬
씰
씸
씹
씻
씽
아
악
안
앉
않
알
앍
앎
앓
암
압
앗
았
앙
앜
앞
애
액
앤
앨
앰
앱
앳
앴
앵
야
약
얀
얄
얇
얌
얍
얏
양
얕
얗
얘
얜
어
억
언
얹
얻
얼
얽
엄
업
없
엇
었
엉
엊
엌
엎
에
엑
엔
엘
엠
엡
엣
엥
여
역
엮
연
열
엷
염
엽
엾
엿
였
영
옅
옆
옇
예
옉
옌
옐
옙
옛
오
옥
온
올
옭
옮
옳
옴
옵
옷
옹
옻
옼
와
왁
완
왈
왐
왑
왓
왔
왕
왜
왠
왱
외
왼
요
욕
욘
욜
욤
욥
욧
용
우
욱
운
울
움
웁
웃
웅
워
웍
원
월
웜
웠
웡
웨
웩
웬
웰
웸
웹
웻
웽
위
윅
윈
윌
윔
윕
윗
윙
유
육
윤
율
윰
윳
융
윷
으
윽
윾
은
을
읆
읊
음
읍
읏
응
의
읜
읭
이
익
인
일
읽
잃
임
입
잇
있
잉
잊
잌
잎
자
작
잔
잖
잘
잠
잡
잣
잤
장
잦
재
잭
잰
잴
잼
잽
잿
쟀
쟁
쟈
쟌
쟝
쟤
저
적
전
절
젊
젋
점
접
젓
젔
정
젖
제
젝
젠
젤
젬
젭
젯
젱
져
젼
졋
졌
졍
졔
조
족
존
졸
좀
좁
종
좆
좇
좋
좌
좔
좡
죄
죌
죗
죠
죤
주
죽
준
줄
줌
줍
줏
중
줘
줬
줴
쥐
쥔
쥘
쥬
쥰
쥴
즈
즉
즌
즐
즘
즙
즛
증
지
직
진
질
짊
짐
집
짓
징
짖
짙
짚
짜
짝
짠
짢
짤
짦
짧
짬
짭
짰
짱
째
짹
짼
쨋
쨌
쨍
쨔
쨩
쨰
쩌
쩍
쩐
쩔
쩜
쩝
쩡
쩨
쪄
쪘
쪼
쪽
쫀
쫄
쫌
쫑
쫒
쫓
쫙
쬐
쭈
쭉
쭐
쭘
쭝
쭤
쮸
쯔
쯤
쯧
찌
찍
찐
찔
찜
찝
찟
찡
찢
찧
차
착
찬
찮
찰
참
찹
찻
찼
창
찾
채
책
챈
챌
챔
챕
챗
챘
챙
챠
챤
챰
챳
챵
처
척
천
철
첨
첩
첫
첬
청
체
첵
첸
첼
쳄
쳅
쳇
쳉
쳐
쳔
쳤
초
촉
촌
촐
촘
촙
촛
총
촤
촨
촬
최
쵸
춉
춋
추
축
춘
출
춤
춥
춧
충
춰
췄
췌
취
췬
츄
츈
츔
츙
츠
측
츤
츨
츰
츳
층
치
칙
친
칠
칡
침
칩
칫
칭
칰
카
칵
칸
칼
캄
캅
캇
캉
캐
캑
캔
캘
캠
캡
캣
캥
캬
캰
컁
커
컥
컨
컫
컬
컴
컵
컷
컸
컹
케
켁
켄
켈
켐
켑
켓
켕
켜
켠
켤
켰
코
콕
콘
콜
콤
콥
콧
콩
콰
콱
콴
콸
쾅
쾌
쾡
쾨
쾰
쿄
쿈
쿠
쿡
쿤
쿨
쿰
쿱
쿳
쿵
쿼
퀀
퀄
퀑
퀘
퀜
퀠
퀴
퀵
퀸
퀼
큄
큅
큐
큔
큘
큠
큥
크
큭
큰
클
큼
큽
큿
킁
키
킥
킨
킬
킴
킵
킷
킹
킼
타
탁
탄
탈
탉
탐
탑
탓
탔
탕
태
택
탠
탤
탬
탭
탯
탰
탱
탸
터
턱
턴
털
텀
텁
텃
텄
텅
테
텍
텐
텔
템
텝
텟
텡
텨
텼
톄
톈
토
톡
톤
톨
톰
톱
톳
통
퇘
퇴
툇
투
툭
툰
툴
툼
툽
퉁
퉈
퉜
퉤
튀
튄
튈
튕
튜
튠
튤
튬
트
특
튼
튿
틀
틈
틋
틔
티
틱
틴
틸
팀
팁
팃
팅
파
팍
팎
판
팔
팜
팝
팟
팠
팡
팥
패
팩
팬
팰
팸
팹
팻
팼
팽
퍄
퍼
퍽
펀
펄
펌
펍
펐
펑
페
펙
펜
펠
펨
펩
펫
펭
펴
편
펼
폄
폈
평
폐
포
폭
폰
폴
폼
폿
퐁
퐈
퐝
푀
푈
표
푯
푸
푹
푼
풀
품
풉
풋
풍
퓌
퓨
퓰
퓸
프
픈
플
픔
픠
피
픽
핀
필
핌
핍
핏
핑
하
학
한
할
핥
함
합
핫
항
핳
해
핵
핸
핼
햄
햅
햇
했
행
햏
햐
햘
햣
향
헀
허
헉
헌
헐
험
헙
헛
헝
헤
헥
헨
헬
헴
헵
헷
헹
혀
혁
현
혈
혐
협
혓
혔
형
혜
호
혹
혼
홀
홈
홉
홋
홍
홑
화
확
환
활
홧
황
홰
홱
횃
회
획
횔
횟
횡
효
횬
횽
후
훅
훈
훌
훑
훔
훕
훗
훙
훠
훤
훨
훵
훼
휀
휑
휘
휙
휜
휠
휨
휩
휴
휼
흄
흉
흐
흑
흔
흘
흙
흠
흡
흣
흥
흩
희
흭
흰
히
힉
힌
힐
힘
힙
힛
힝
金
老
雷
樂
不
女
龍
劉
六
李
﨑
ﬁ
︎
️
！
＂
＃
％
＆
（
）
＊
＋
，
－
．
／
０
１
２
３
４
５
６
７
８
９
：
；
＜
＝
＞
？
＠
Ａ
Ｂ
Ｃ
Ｄ
Ｅ
Ｆ
Ｇ
Ｈ
Ｉ
Ｋ
Ｌ
Ｍ
Ｎ
Ｏ
Ｐ
Ｒ
Ｓ
Ｔ
Ｕ
Ｖ
Ｘ
Ｙ
［
＼
］
＾
＿
｀
ｈ
ｍ
ｏ
ｕ
ｗ
｜
～
｡
｢
｣
､
･
ｭ
ｯ
ｰ
ｱ
ｲ
ｳ
ｵ
ｶ
ｷ
ｸ
ｺ
ｻ
ｼ
ｽ
ｾ
ﾀ
ﾁ
ﾃ
ﾄ
ﾅ
ﾈ
ﾉ
ﾊ
ﾌ
ﾏ
ﾗ
ﾘ
ﾙ
ﾚ
ﾛ
ﾝ
ﾞ
ﾟ
￣
￥
￦
🌏
🏠
💕
😇
🚄
🚌
##6
##상
##급
##으
##로
##까
##지
##극
##연
##기
##가
##대
##병
##서
##의
##입
##인
##는
##p
##소
##모
##1
##에
##렸
##음
##을
##술
##만
##침
##카
##i
##ù
##2
##전
##터
##였
##다
##ㅇ
##ㅅ
##ㄷ
##셨
##고
##쭈
##꾸
##미
##학
##장
##비
##들
##광
##쪽
##재
##업
##무
##8
##0
##석
##네
##르
##바
##흐
##체
##9
##년
##방
##성
##파
##괴
##r
##d
##a
##y
##주
##얼
##아
##츠
##월
##사
##랑
##은
##제
##략
##슈
##리
##타
##구
##조
##를
##찰
##부
##분
##프
##러
##트
##니
##3
##해
##당
##펜
##듈
##럼
##려
##먹
##어
##버
##린
##드
##끼
##O
##G
##A
##K
##U
##S
##H
##I
##징
##차
##원
##이
##잖
##D
##o
##수
##료
##라
##브
##란
##스
##문
##교
##공
##w
##혹
##시
##코
##토
##텐
##클
##e
##m
##s
##함
##키
##실
##오
##객
##죠
##톤
##워
##엄
##명
##류
##깔
##섯
##동
##할
##훈
##련
##냐
##며
##총
##면
##힐
##티
##쓰
##록
##청
##개
##화
##독
##E
##R
##n
##v
##일
##정
##책
##5
##나
##패
##테
##블
##루
##룽
##섬
##도
##마
##뱀
##붙
##근
##점
##혁
##N
##M
##떠
##난
##c
##피
##숍
##등
##벌
##즈
##자
##율
##과
##튼
##진
##영
##감
##약
##번
##요
##품
##게
##밍
##든
##속
##h
##와
##톨
##역
##하
##여
##담
##온
##우
##u
##f
##t
##올
##ü
##ı
##l
##발
##매
##더
##크
##행
##중
##레
##유
##예
##씩
##저
##벨
##폭
##론
##효
##물
##통
##P
##4
##천
##승
##택
##배
##데
##칸
##슴
##립
##설
##밖
##선
##カ
##タ
##イ
##☆
##법
##녀
##x
##희
##왕
##별
##작
##회
##씨
##세
##욱
##결
##산
##변
##질
##간
##야
##틴
##곱
##검
##메
##션
##건
##했
##량
##력
##임
##큼
##국
##추
##람
##북
##틀
##빨
##금
##쯔
##겐
##몽
##격
##측
##움
##궤
##완
##군
##안
##콜
##양
##い
##る
##ん
##だ
##ろ
##う
##보
##벤
##7
##▲
##k
##g
##뒤
##삼
##형
##획
##한
##펄
##른
##렐
##투
##답
##운
##탄
##엔
##내
##B
##뮤
##직
##되
##포
##각
##남
##반
##위
##외
##황
##균
##★
##관
##평
##잘
##두
##었
##후
##듬
##및
##걸
##목
##æ
##킬
##짱
##W
##Y
##겸
##채
##념
##글
##잉
##랜
##릭
##X
##울
##햄
##こ
##は
##オ
##レ
##ン
##ジ
##케
##─
##따
##윈
##캠
##치
##널
##집
##셰
##셀
##칭
##적
##→
##신
##애
##휘
##봉
##익
##거
##그
##률
##써
##용
##살
##태
##웅
##C
##쿠
##렇
##か
##ら
##염
##판
##종
##F
##팀
##합
##디
##떼
##쿤
##델
##생
##존
##몬
##に
##본
##머
##강
##철
##필
##릴
##졌
##엘
##し
##め
##れ
##て
##족
##V
##링
##몇
##습
##래
##먼
##박
##쥐
##꺼
##것
##넥
##단
##베
##덤
##킨
##な
##わ
##た
##で
##경
##식
##민
##홍
##규
##너
##절
##됨
##창
##캡
##j
##の
##플
##덴
##논
##쳤
##즌
##잡
##ㆍ
##암
##뜰
##계
##と
##빠
##묵
##b
##알
##호
##ㅤ
##ㄱ
##ㅢ
##맞
##복
##짐
##ō
##ē
##숨
##у
##р
##о
##п
##а
##́
##т
##к
##и
##н
##말
##노
##앙
##렉
##활
##편
##돌
##よ
##す
##져
##있
##례
##밟
##팝
##렌
##벽
##킹
##렛
##령
##곽
##출
##증
##꾼
##손
##봐
##던
##최
##충
##즘
##길
##싶
##＾
##톳
##귀
##낸
##탁
##김
##굴
##닥
##T
##둠
##턴
##L
##취
##럽
##룩
##뿐
##페
##친
##븐
##헌
##풀
##붕
##갓
##권
##능
##홀
##딩
##컨
##센
##험
##됐
##접
##초
##순
##열
##룡
##겠
##핌
##깥
##첵
##셔
##첫
##째
##히
##틸
##겨
##É
##퍼
##셴
##림
##언
##섭
##백
##갑
##쁜
##ㅜ
##님
##밀
##귤
##쾌
##じ
##ゅ
##현
##콤
##콘
##빵
##맨
##킵
##き
##せ
##쉽
##처
##씬
##°
##준
##런
##퐁
##축
##협
##あ
##표
##칙
##팅
##곡
##챔
##냥
##퓰
##칠
##빌
##벼
##왔
##켜
##뱌
##봇
##많
##않
##탕
##또
##멘
##샤
##홈
##꼬
##흥
##싸
##촌
##ラ
##を
##ス
##キ
##ー
##켐
##픽
##름
##돈
##갱
##ォ
##쟁
##コ
##ミ
##앞
##킥
##육
##풍
##된
##줘
##송
##앨
##♪
##숙
##십
##붉
##색
##Ω
##항
##휴
##폰
##악
##쉬
##났
##좌
##싱
##빛
##맹
##쥬
##망
##돼
##혼
##억
##쌓
##특
##슬
##툼
##혈
##믹
##롤
##응
##환
##느
##컵
##커
##옥
##룸
##묘
##헤
##ö
##ハ
##ャ
##ド
##リ
##ム
##ほ
##り
##⑤
##숲
##홧
##ポ
##ツ
##ダ
##누
##죽
##윌
##∼
##윤
##Z
##갈
##ッ
##ク
##득
##빔
##넣
##팰
##갤
##덕
##궁
##댕
##때
##앓
##밴
##닌
##범
##달
##q
##없
##눈
##쓸
##깨
##릉
##뢰
##락
##찌
##긴
##갔
##셈
##쇼
##얏
##삭
##웍
##샐
##착
##맴
##뎌
##냈
##릿
##ル
##ナ
##ト
##み
##빼
##꽃
##콩
##↓
##탈
##엑
##몰
##뿌
##골
##팟
##ゃ
##허
##같
##콥
##켓
##が
##뀐
##딜
##땐
##젤
##향
##뼈
##밥
##캉
##괄
##날
##렬
##푸
##픔
##z
##쯤
##×
##♬
##뷔
##쭉
##も
##캐
##팬
##뷰
##엇
##춘
##넷
##ブ
##け
##え
##께
##α
##π
##ί
##ξ
##ε
##ι
##ν
##렘
##흑
##쇄
##켰
##았
##ィ
##윙
##훔
##압
##뻐
##끔
##즐
##불
##ま
##뒀
##퀴
##Ⅱ
##낙
##춤
##グ
##メ
##견
##딥
##깡
##핑
##젠
##템
##받
##므
##덱
##J
##좀
##닝
##롬
##つ
##く
##っ
##ベ
##テ
##エ
##ニ
##ȝ
##ボ
##륙
##퀘
##줄
##ネ
##ヴ
##ァ
##＝
##マ
##ョ
##흡
##곶
##⋯
##럴
##롯
##닷
##컴
##샀
##싯
##찬
##엽
##웠
##셋
##á
##ū
##튀
##층
##랄
##췌
##큐
##セ
##シ
##♡
##둥
##웃
##랭
##뉴
##펙
##é
##ǒ
##쨩
##렙
##ふ
##ぞ
##럿
##맛
##슘
##폿
##액
##デ
##Ⅰ
##새
##칼
##꿀
##텍
##핵
##ロ
##참
##껍
##탐
##Q
##빙
##뮴
##둬
##닭
##꼼
##텔
##ゾ
##サ
##ウ
##パ
##심
##셜
##퀼
##엡
##꽝
##꿈
##さ
##ど
##쪼
##죄
##잔
##잠
##혔
##막
##떤
##ä
##룻
##탠
##넘
##넌
##앗
##왈
##ち
##슷
##닉
##융
##뜨
##ア
##뚱
##늬
##솔
##챙
##겼
##컬
##퀸
##ㅣ
##ᆞ
##앵
##탤
##쿼
##탱
##킷
##꼭
##끌
##볼
##몸
##ピ
##듯
##좋
##셉
##뤼
##팔
##혜
##폴
##놓
##엠
##램
##■
##л
##с
##й
##쉐
##킴
##짓
##촬
##Á
##뚜
##맘
##틋
##ā
##쌀
##딧
##헨
##척
##덧
##랙
##풋
##앤
##슨
##늘
##팩
##됬
##땅
##쿨
##욧
##첼
##ό
##ρ
##ω
##짜
##젼
##퓨
##높
##썬
##펠
##잇
##짬
##ね
##ざ
##넨
##チ
##ュ
##톱
##씽
##봄
##퉁
##옳
##졸
##㎡
##◾
##닛
##ユ
##フ
##겔
##샷
##멸
##뇨
##댄
##녕
##옹
##ा
##स
##म
##न
##द
##ि
##त
##्
##व
##ं
##럭
##덩
##멤
##ヒ
##◎
##ㅎ
##ゆ
##●
##뻤
##찍
##◇
##깃
##뭇
##잎
##탑
##ㄧ
##샌
##밸
##꿰
##뚫
##웨
##▶
##옷
##렴
##흔
##팥
##힘
##혐
##핀
##쌍
##낭
##촉
##ㅋ
##룹
##챠
##е
##в
##곳
##털
##빈
##캣
##낌
##튜
##ノ
##슐
##멀
##밤
##윕
##헬
##ſ
##겜
##ば
##↔
##삽
##퇴
##ⓗ
##や
##훼
##밋
##꾹
##롱
##넴
##땡
##딱
##똥
##렁
##곰
##낫
##값
##햇
##혀
##뎀
##ぬ
##왑
##폐
##そ
##헷
##웡
##쏜
##켈
##틱
##쳐
##ひ
##샵
##딸
##ょ
##≫
##쥔
##랍
##ぼ
##곤
##텀
##ｾ
##콧
##ل
##ا
##ي
##و
##쉿
##쿵
##놋
##쇠
##왜
##욕
##맥
##끄
##～
##ᅀ
##ᅳ
##릎
##꿇
##툰
##뱉
##몹
##잼
##딪
##쿄
##냉
##멜
##끝
##ヤ
##バ
##ガ
##깁
##뇌
##륜
##깽
##괘
##□
##톰
##딛
##늄
##펫
##툴
##팁
##ワ
##ビ
##숭
##댓
##뜻
##쟈
##д
##첸
##믿
##덮
##²
##γ
##β
##ŏ
##ы
##қ
##츄
##ﾌ
##ﾟ
##ﾛ
##ﾃ
##ﾞ
##ｭ
##ｰ
##ｻ
##못
##œ
##앱
##↗
##↘
##웬
##ぐ
##お
##⇔
##ø
##줬
##ザ
##ぴ
##쏘
##닐
##확
##뭔
##썰
##썼
##옆
##껏
##ᆡ
##ᇰ
##ᄀ
##ᆯ
##팽
##꿔
##넵
##튠
##깊
##м
##з
##벡
##켄
##ェ
##녁
##놀
##싫
##ó
##뭐
##춰
##┼
##잃
##츤
##될
##횟
##힙
##م
##د
##ک
##ر
##ز
##ی
##줍
##읽
##↑
##굵
##훤
##プ
##밭
##뿔
##덜
##걀
##è
##젬
##○
##놨
##▼
##농
##μ
##캇
##돔
##ㅂ
##팡
##숀
##웹
##밉
##퀄
##뮬
##롭
##룬
##퓌
##싹
##◆
##앉
##げ
##랫
##둘
##컷
##멩
##떨
##펀
##옴
##놔
##핼
##캔
##폼
##텁
##젊
##펑
##봤
##윰
##젝
##찜
##엣
##둔
##큰
##읍
##끈
##샘
##랩
##듀
##짝
##꽂
##빅
##샨
##へ
##ο
##λ
##υ
##σ
##η
##즉
##ṭ
##깎
##탯
##첩
##텝
##＋
##썸
##쵸
##잣
##쌔
##흰
##씹
##ㅈ
##ㄴ
##뭉
##ず
##ヌ
##쩔
##둑
##ぅ
##ㅒ
##톡
##앎
##깐
##맵
##ズ
##줌
##ǣ
##툭
##펭
##귄
##ペ
##녹
##Ε
##Λ
##Π
##Ι
##Σ
##ご
##릇
##ς
##♥
##뚝
##뽑
##ч
##ь
##떡
##뱅
##섰
##ソ
##㎜
##쫓
##쉴
##탭
##퀵
##윅
##ヲ
##찾
##ë
##∞
##뻥
##넬
##ã
##ぱ
##옵
##밑
##뮌
##г
##ぺ
##í
##쥘
##컁
##쩌
##ú
##렷
##훗
##멈
##쳇
##헛
##닫
##낼
##붐
##モ
##τ
##ʻ
##땀
##섞
##핏
##ř
##껴
##샬
##랴
##ȳ
##ㄨ
##ñ
##잰
##댈
##딕
##솟
##볶
##걱
##흉
##챘
##¬
##ぶ
##낚
##납
##ゴ
##엉
##섹
##얀
##️
##ւ
##ի
##յ
##ա
##մ
##렵
##랐
##웰
##♂
##륨
##ぇ
##흙
##랬
##ḳ
##à
##ע
##ק
##ר
##랏
##띠
##ㅍ
##ㅝ
##잦
##댁
##놈
##컹
##헥
##휠
##κ
##δ
##ن
##ب
##딘
##쁘
##③
##ㅘ
##ž
##♤
##̯
##ə
##찮
##쁨
##ぽ
##췄
##뱃
##씀
##눔
##옐
##턱
##뛰
##잭
##ㅃ
##ぃ
##ƿ
##갸
##Ⅵ
##놉
##™
##캬
##멧
##탬
##า
##ร
##②
##멍
##겁
##썩
##맷
##죤
##뒷
##맏
##㎑
##칩
##넛
##긋
##ᄅ
##늑
##픈
##ぷ
##б
##뺑
##쩍
##벚
##탓
##ל
##א
##흠
##훅
##쩡
##ケ
##줴
##ㅠ
##ㄿ
##∙
##غ
##왠
##㎞
##낮
##빗
##윗
##щ
##ῦ
##힌
##녘
##돗
##ն
##य
##ग
##र
##ह
##벗
##ᄌ
##랗
##ギ
##ß
##겟
##쌉
##웜
##맡
##긍
##ㅊ
##ㅙ
##쩐
##멋
##곪
##삶
##뮐
##룰
##냄
##Ö
##숴
##곧
##㎢
##㎏
##닿
##ð
##④
##쨌
##넹
##떻
##밌
##べ
##칫
##쌘
##챌
##뵙
##מ
##ו
##ב
##י
##굉
##ă
##겄
##훌
##륭
##튬
##ש
##ת
##핫
##갯
##▷
##낀
##벵
##벅
##✴
##텟
##캘
##ī
##퍽
##ê
##Ｋ
##뜯
##ぁ
##갖
##뺄
##깅
##왼
##뮈
##펌
##び
##Ⅶ
##촤
##첨
##±
##얘
##뎃
##툽
##â
##쓴
##짤
##닦
##쿳
##캄
##텨
##숫
##헐
##홋
##뽀
##ò
##굳
##ぎ
##숑
##횬
##굿
##솅
##☠
##삿
##ô
##θ
##ή
##겊
##샹
##땜
##♀
##쏙
##궐
##뻬
##릅
##챈
##ю
##ш
##뻔
##뎠
##틈
##ğ
##ホ
##＞
##С
##꼈
##ㅛ
##ㄽ
##봅
##∥
##옛
##뿅
##돠
##♣
##앴
##삐
##둣
##헝
##빚
##믈
##ㅚ
##녜
##깝
##①
##냅
##탸
##옌
##푹
##덥
##✓
##뎅
##뉘
##뀜
##і
##굽
##◉
##딤
##앳
##굼
##즛
##콴
##찹
##づ
##þ
##Æ
##팍
##겉
##ゲ
##х
##듣
##왁
##쟝
##힛
##눠
##쉑
##⅔
##샛
##꼽
##낳
##켑
##ύ
##ㄹ
##ㅕ
##흘
##뽕
##왓
##ｶ
##ﾊ
##ヅ
##뚤
##솥
##꽈
##웁
##륵
##Â
##£
##얄
##펴
##û
##Ψ
##㎾
##ヨ
##껌
##쑤
##ｲ
##볍
##ㅡ
##괌
##푼
##î
##갬
##น
##พ
##ะ
##บ
##ม
##ช
##ป
##ั
##์
##ė
##ت
##я
##녔
##섀
##엥
##Ⅲ
##엾
##쥰
##멕
##솁
##℃
##Ё
##듦
##댔
##▣
##콰
##깟
##끗
##욘
##햐
##핸
##렀
##뻗
##갚
##슛
##ǎ
##떵
##ᄂ
##맸
##┠
##돋
##ά
##붓
##뇽
##ゐ
##ǐ
##ş
##밧
##㎟
##ิ
##ต
##ี
##้
##짚
##딨
##≤
##숄
##챤
##괵
##꽁
##뺏
##짹
##삑
##ぜ
##빡
##뿜
##ĭ
##←
##랸
##짰
##💕
##홉
##ᠠ
##ᡳ
##즙
##쿰
##ṇ
##룀
##밈
##젖
##ł
##댐
##엿
##벳
##ì
##Ø
##뺀
##뤄
##앰
##껄
##칵
##긁
##눴
##ﾄ
##큔
##솜
##훨
##핍
##쑹
##캅
##뱁
##츰
##횃
##떄
##짖
##셸
##욜
##ف
##े
##쉘
##잌
##８
##０
##ｍ
##빴
##궂
##됩
##듭
##פ
##겅
##껑
##썹
##♯
##ㅆ
##ㅄ
##궃
##ж
##ㄶ
##ʔ
##ﾀ
##š
##ү
##↙
##ｯ
##÷
##찼
##꼴
##✅
##㎝
##밝
##펼
##넉
##냠
##찐
##벙
##튕
##꿉
##숱
##깜
##켠
##겹
##믄
##콸
##텄
##ć
##ِ
##ك
##َ
##ǔ
##ï
##쌈
##む
##팸
##곁
##짧
##쬐
##ゥ
##㈜
##ง
##훙
##챕
##ى
##햅
##−
##눌
##힝
##젯
##챳
##č
##볕
##맺
##ज
##ç
##ぉ
##찔
##ㅁ
##ј
##괜
##빰
##댑
##딴
##נ
##ם
##≠
##옮
##윳
##튤
##뀌
##쫄
##빤
##К
##썽
##좆
##쉈
##뗀
##듐
##췬
##띵
##뫼
##싼
##ъ
##έ
##찡
##뻘
##껫
##ῆ
##텅
##덫
##ә
##ɪ
##ㅀ
##궈
##잿
##´
##쉰
##젔
##쥴
##뀔
##🚌
##찻
##△
##뜩
##잊
##줏
##쮸
##렝
##짭
##햘
##뇰
##낵
##잤
##ḍ
##Δ
##ộ
##쾅
##≒
##꿍
##ﬁ
##튿
##쫒
##▩
##핥
##ן
##φ
##뤽
##Ⅳ
##눕
##꼿
##ㅌ
##냘
##Р
##º
##꺽
##먀
##쑥
##ヘ
##ส
##ก
##ุ
##ล
##ย
##ｳ
##팜
##늦
##둡
##엮
##ㄲ
##뤘
##ĕ
##헴
##ц
##얹
##│
##횡
##Ä
##쳔
##찢
##흩
##슭
##휼
##ⓐ
##솝
##뼘
##긱
##２
##콕
##괭
##돛
##넒
##퍄
##슌
##쉼
##큘
##ㅓ
##엎
##팻
##ᅮ
##잽
##맟
##ⁿ
##쌌
##３
##믐
##❤
##ㄻ
##똑
##늠
##ː
##낄
##떽
##맑
##짠
##｜
##½
##ه
##츨
##삥
##ㅐ
##굇
##쭝
##ゼ
##쿡
##빽
##ɛ
##짢
##ش
##ة
##퀀
##ㅞ
##뜀
##끊
##å
##톄
##П
##쀼
##쌤
##Д
##딫
##멥
##ɑ
##χ
##≪
##츙
##쩜
##뛴
##뛸
##뀨
##ⓒ
##쉔
##ս
##ո
##ὸ
##펍
##젓
##━
##ص
##뜬
##ㅗ
##뭄
##슝
##짙
##슾
##뵐
##ㅑ
##ㅏ
##묻
##닙
##↕
##묶
##█
##ج
##ɯ
##כ
##ה
##얽
##˚
##ָ
##뻑
##ᆫ
##셩
##ℓ
##떴
##ㅔ
##쟌
##س
##া
##◦
##캰
##ŭ
##뜸
##듸
##쭤
##귈
##뮨
##５
##휙
##톈
##갰
##ط
##ئ
##챵
##댜
##ｷ
##１
##롄
##Ⅸ
##Х
##귓
##Я
##ș
##◀
##◈
##씸
##ｺ
##ა
##ი
##쓱
##У
##͡
##４
##훵
##슉
##뺨
##얻
##ᄉ
##¹
##맬
##ś
##쇳
##쎄
##뿡
##В
##ㅖ
##촐
##Ⅷ
##몫
##ạ
##ㄸ
##⭐
##똘
##ﾏ
##ｽ
##ﾈ
##ｗ
##®
##ु
##ः
##ी
##ę
##휜
##ᅩ
##큠
##낱
##Б
##ώ
##쎈
##̃
##ŋ
##넓
##ѣ
##쪘
##Ｍ
##ᅡ
##ῖ
##륄
##윽
##ᄆ
##ᄒ
##맣
##탔
##쏠
##찟
##쾡
##닳
##쁠
##꾀
##넝
##띄
##칰
##Κ
##ᡤ
##ᠯ
##ý
##겡
##냇
##쑨
##€
##ʊ
##볏
##쫑
##헙
##ﾗ
##낯
##냔
##่
##걍
##꺾
##￦
##땔
##깍
##э
##훠
##꺄
##└
##웻
##챗
##⇒
##숟
##윷
##▽
##ր
##վ
##Β
##Τ
##ｸ
##ع
##ذ
##늪
##õ
##ᆺ
##쇽
##붑
##쏴
##큥
##إ
##ค
##뉵
##ё
##㎚
##좁
##팎
##뼛
##➡
##ɔ
##ɕ
##갠
##맙
##슥
##흣
##씌
##헉
##읜
##띨
##ो
##च
##뎬
##ζ
##ʼ
##묜
##깻
##샥
##맢
##Θ
##９
##뾰
##뷸
##땃
##ф
##떳
##헹
##И
##ᄭ
##ᅥ
##텡
##ق
##ח
##샴
##뗏
##ㄵ
##７
##⊙
##덟
##푀
##ᅵ
##켤
##폄
##춧
##껀
##꽤
##겋
##겪
##Ｘ
##갇
##¥
##쌩
##졍
##띔
##ُ
##ْ
##펐
##ห
##ว
##ท
##ด
##อ
##ｼ
##돚
##ῶ
##ᄫ
##얌
##⑥
##닮
##랖
##쫀
##Т
##엌
##늉
##쭐
##क
##졋
##↖
##ψ
##눅
##Å
##ﾁ
##ң
##츳
##ṣ
##욥
##솽
##ल
##냑
##뷘
##ㄳ
##팠
##첬
##ㅉ
##ﾝ
##됴
##얜
##ʒ
##ĝ
##ᠣ
##ᠭ
##ż
##웩
##븨
##꺅
##Н
##ㅟ
##ّ
##ო
##핳
##퀑
##퓸
##왱
##ּ
##ᠰ
##ᠮ
##ᡝ
##ს
##்
##⑲
##빳
##샾
##꿨
##М
##졔
##ლ
##ế
##Г
##⑨
##ἀ
##햏
##긔
##ʌ
##챰
##ɡ
##ე
##რ
##펨
##Š
##륀
##＜
##ᆨ
##휩
##Ⅴ
##ᅧ
##ᆷ
##Ｉ
##Ｌ
##폈
##ס
##♧
##เ
##็
##┃
##셍
##ả
##쐐
##뢴
##짼
##윔
##ʁ
##눙
##탉
##햣
##뵈
##씻
##ầ
##⋅
##헵
##Ｏ
##Ｖ
##Ｅ
##Ｓ
##Ō
##뽈
##ᄃ
##្
##뭥
##뭘
##뤠
##씁
##옅
##갛
##볜
##쾨
##찝
##∀
##श
##묀
##갭
##А
##ไ
##┗
##｀
##닢
##횔
##♨
##샅
##뵤
##꼐
##퉈
##〇
##㎥
##Ü
##प
##گ
##⑫
##ө
##츈
##뻣
##섶
##륌
##벰
##촨
##앜
##퀜
##ệ
##멱
##쏟
##ד
##궜
##ᅌ
##걔
##ｱ
##쿱
##♦
##욤
##깰
##꼰
##จ
##ẽ
##쩨
##돤
##좡
##ﾙ
##ᆼ
##읭
##₩
##뎁
##닼
##ἰ
##쳉
##롸
##ｵ
##꿎
##쌰
##ᄇ
##ㄺ
##쨰
##ń
##펩
##튈
##쑈
##ध
##ण
##붇
##묭
##µ
##⑧
##Ａ
##Ｒ
##Ｎ
##맆
##셌
##켕
##캥
##겍
##⅓
##ὐ
##왐
##О
##옻
##쏭
##Ｃ
##ɨ
##랠
##촙
##ĉ
##큭
##먄
##헀
##ễ
##쪄
##Ф
##ब
##꿩
##¾
##끽
##ˈ
##ʃ
##픠
##Ｇ
##Ｄ
##◁
##◯
##몐
##΄
##ष
##읏
##ح
##￣
##룔
##ե
##눗
##뽁
##︎
##ɐ
##₡
##숏
##쩝
##İ
##ᠪ
##ᠨ
##캑
##ą
##옙
##곗
##ư
##ơ
##Ｈ
##볐
##뉜
##Ш
##¸
##ě
##쨋
##슼
##듄
##샙
##삘
##⑮
##ʑ
##뽐
##쁩
##♭
##ᄎ
##ᄯ
##ᄠ
##훕
##̚
##끙
##⑩
##⑦
##▓
##▒
##≥
##ぢ
##쿈
##웸
##팃
##킁
##땠
##Ｔ
##À
##Ú
##앍
##씰
##늙
##껸
##├
##Е
##돕
##쒀
##얇
##♠
##뎐
##خ
##븀
##땄
##ㄼ
##̍
##Ｕ
##Α
##Ν
##Ο
##Ρ
##̞
##أ
##Ｐ
##삔
##좇
##տ
##낡
##ὰ
##Ð
##잴
##ﾘ
##촛
##몄
##굣
##밎
##춋
##켁
##퐈
##넋
##얕
##읊
##¼
##￥
##ـ
##낑
##쉭
##ᡠ
##횽
##¢
##젭
##Ó
##컥
##Φ
##텃
##ɹ
##ᄋ
##텼
##ᡥ
##솀
##Ｂ
##뚠
##ｕ
##ｈ
##멎
##춥
##È
##옼
##얍
##깄
##쾰
##쟤
##³
##힉
##벞
##쨔
##솩
##ㄾ
##Л
##뭍
##Ⅹ
##닻
##혓
##츔
##쌕
##ﾚ
##뒈
##З
##퀠
##⑶
##띤
##끓
##آ
##©
##쫌
##뒹
##풉
##묠
##푯
##쇤
##뼉
##ʰ
##６
##ื
##퉤
##넜
##썅
##뺌
##깬
##뿍
##섣
##밞
##▄
##┣
##꽉
##걷
##꿋
##큅
##쯧
##░
##뺐
##멓
##삵
##죌
##Ā
##▀
##볘
##귐
##ũ
##틔
##Э
##ｏ
##Ş
##넙
##ʲ
##Ц
##옇
##옭
##ɾ
##ﾅ
##됭
##봬
##Χ
##Υ
##◐
##팼
##쨍
##엊
##뗄
##Ç
##Ｙ
##촘
##벛
##ᡵ
##뎨
##퉜
##Đ
##ḥ
##빕
##կ
##셧
##☭
##갹
##뷜
##칡
##뷁
##닯
##셤
##얗
##웽
##भ
##☞
##껐
##섕
##홰
##겻
##흄
##ὶ
##々
##옉
##پ
##뷴
##Ⓐ
##녠
##돡
##쭘
##빻
##ŝ
##춉
##컸
##홑
##괸
##ⓢ
##븅
##ﾉ
##뫄
##굶
##쳅
##Þ
##젋
##숯
##똬
##싣
##쳄
##넸
##낍
##뒬
##컫
##Í
##퇘
##큄
##좔
##궨
##ヶ
##띈
##뭣
##ⓑ
##Ἀ
##깼
##⬅
##삯
##√
##큿
##Ȝ
##㎒
##◑
##ƒ
##꺠
##젱
##뺴
##땋
##콱
##갗
##푈
##Ю
##썻
##ἐ
##뜷
##묄
##✨
##귯
##Γ
##☎
##〓
##꽥
##뀝
##☜
##짦
##쫙
##쟀
##Œ
##Μ
##똠
##┏
##┓
##퐝
##꽹
##⌀
##짊
##튄
##묏
##휀
##đ
##쏨
##Ｆ
##솎
##쐬
##벱
##띌
##깠
##탰
##Ч
##뉠
##흭
##⑸
##휑
##윾
##꽐
##✦
##꿏
##샜
##엷
##🚄
##쐈
##팹
##갉
##읆
##▨
##곯
##뗐
##몆
##꾐
##떫
##Ж
##큽
##ị
##훑
##찧
##Č
##킼
##🏠
##▸
##🌏
##≈
##툇
##섐
##Ś
##┛
##뭡
##죗
##휨
##ὁ
##ⓚ
##๎
##⠄
##⣿
##😇
##뵘
##⇓
##묽
##홱
##he
the
##er
##nd
##in
##on
##at
##ed
of
##es
##en
##or
##ou
##is
and
to
##it
##ar
##an
##으로
##에서
in
##ing
th
##re
##al
##as
##ion
##ic
##om
##ll
be
##ent
##le
##ot
##st
20
##ut
that
##ly
##ct
##ad
##se
##하는
있다
##ce
##ve
re
##id
##이다
wh
##ow
##지만
##ur
##었다
for
it
##ir
is
##ld
##im
on
he
as
was
##gh
##et
pr
##ay
##ith
##ver
##ch
The
##에게
##ter
##하고
with
st
##am
##한다
an
##00
##ation
19
201
##her
not
##ess
con
or
by
##했다
su
##ain
his
de
있는
ha
##il
##ght
##our
##od
##이라
at
sh
##ich
##est
##ri
##ol
se
때문
##op
##ul
##까지
##ate
##에는
##ill
한다
which
##pp
##us
fr
##면서
##들이
##하게
##는데
##ment
##ould
ex
##ge
10
com
##if
##ere
##os
##ant
had
you
##ak
##ac
##ers
this
##ab
##으며
##th
##and
##ight
##에서는
##ist
##all
from
##적으로
##ect
##였다
경우
we
##하다
##ore
have
##레이
때문에
all
me
사용
##iv
##적인
##nt
are
아니
##ig
##부터
##리고
##하여
##ity
이후
##ard
자신
##art
him
so
공격
ne
##스트
##ra
##ust
##해서
sa
##하기
##mp
but
##다는
whe
18
up
her
##ther
##ive
사람
12
##ff
ch
##대로
they
##다고
##ie
##ies
##ous
pro
do
who
##um
were
11
##되었다
##el
200
##un
al
##ort
##하면
St
##end
##qu
##이나
다른
정도
##들은
sp
##ame
##ud
##ong
##ro
there
their
man
go
##ap
##들을
등장
##ence
##라는
##ord
##으나
one
my
no
된다
##지는
them
##기도
##ome
##에도
##em
##들의
##ear
##라고
##ast
하지만
대한
##기를
##리는
##ok
15
그리고
##nder
##하지
가능
아이
것이
ab
##기에
said
##되어
##ure
pl
tr
int
같은
app
##하며
any
Th
##ound
been
들어
##ose
하는
##ci
##out
##sel
하나
##ions
##는다
le
##ind
게임
##ag
##ell
en
ag
##ice
사실
##다가
other
ad
un
##ance
##cc
##20
##스터
she
lo
He
##니다
will
##ourt
##ary
would
##ert
그러
##ep
co
##reat
시작
It
모습
##하였다
ar
##았다
일본
##au
cont
##이트
##ine
##거나
fa
##able
함께
##one
##보다
##ue
이름
dis
##ough
In
한국
##된다
16
##리를
kn
##학교
its
cl
has
이상
out
13
위해
##ck
없다
##aw
##iz
나오
문제
##기가
##ib
##ade
생각
if
것을
만들
##ake
##ans
wor
part
##되는
##itt
##어서
##ish
qu
can
Ch
##ction
##ount
되었다
##ime
17
comp
##ass
##ry
##ated
when
##ire
또한
##ven
##ke
##own
res
##ally
따라
프로
##ree
##ub
##ost
upon
such
##릭터
##라이
가장
##력을
14
다시
##이지
30
##fore
##ack
##pt
under
당시
##age
사이
gr
##hed
##리가
있었
##에서도
##cl
And
am
캐릭터
per
shall
##ict
없는
us
##ip
##이라고
##ase
##처럼
##력이
##8년
##지고
##ates
모두
199
상대
more
했다
추가
##ings
may
##9년
플레이
##으면
것이다
##리아
##리스
##이며
상황
##ress
##기는
시간
##지를
##이라는
##ru
into
모든
our
결국
li
##ew
##fter
##self
tw
##ition
현재
##7년
것으로
off
##ec
##이고
time
##ide
##리즈
상태
But
25
##ied
##되었
##이는
what
comm
pre
than
있었다
br
보여
자신의
##자가
많이
exp
##ond
##6년
##oss
imp
것은
##ia
##iss
##ach
made
시즌
존재
##ited
##0년
##ery
전투
some
다만
하고
보면
##wn
again
##스의
##이었
##하면서
##ations
그러나
##ace
다음
스킬
court
그런
##ite
##5년
only
ob
100
ever
매우
카드
rep
##ont
선수
##201
cons
##ber
미국
##이스
should
##urn
세계
##성이
많은
##ays
##ved
효과
##lo
could
##므로
act
law
##ign
##ile
sub
##ise
나온
그래
##iff
Un
상당
your
##4년
##ang
acc
##oll
inter
시리즈
##ious
bec
##스를
##인다
이용
경기
##들에게
##lic
##ath
over
아니라
기록
##가는
물론
prop
##av
after
ind
##ons
##ought
##인이
##가지
then
이유
##ory
지역
##ause
##스가
these
##act
Mr
great
##ens
fir
know
처음
아닌
##ject
그렇
자체
rem
##int
돌아
##other
##so
이런
실제
op
Wh
right
##red
##이었다
##졌다
있으며
did
21
필요
pres
여러
일반
##사를
##진다
bo
라고
이미
##ial
바로
like
라이
##부분
##들과
pe
##og
des
##3년
관련
##지가
000
##ian
##하자
##ult
##인데
##led
##시아
##ull
##erm
##2년
##les
before
않는
특히
거의
##시키
피해
##hing
##거리
되어
역시
car
two
기술
마법
about
now
##인지
see
해당
##ife
198
##사가
must
모습을
50
주인
영화
##eral
##aint
##상을
##린다
##어나
##ink
라는
form
##ces
##ower
where
24
thr
##ness
기본
##도가
이야
##ark
##주의
##ick
rec
very
않고
22
진행
def
##ne
같이
po
##ical
those
아무
떨어
##ution
own
##라도
##지막
bet
same
통해
##기로
year
first
##이지만
hand
##1년
##ild
##ather
##ng
##장을
수도
##에선
##ood
##하였
##국의
23
##하지만
##uth
##했던
##ors
좋은
##ee
사건
스타
있는데
##ced
##orm
##uch
방어
위치
##we
부분
방송
ro
##로는
ord
##dd
case
##해야
##이가
작품
증가
##성을
state
참고
att
##iver
good
대부분
##했고
##ward
##주는
마지막
Com
rel
##ful
how
##시간
work
않는다
States
계속
인간
##아서
제작
##erv
pur
We
일부
##mm
내용
##이드
##르는
기준
pers
달리
보고
##되고
있어
되는
This
만들어
being
서울
능력
prov
##res
##old
every
주인공
있을
##전히
않은
활동
##ater
##리에
##rit
가지고
##atter
##ered
##ail
reg
also
비슷
이전
dist
No
국가
올라
##으니
fe
day
##oth
40
bl
here
그냥
God
##ft
정도로
##ments
있고
ass
어느
##렸다
United
##rib
##vern
say
하다
지금
않았
##orn
Ar
인해
26
성공
##cess
수준
##습니다
대신
dec
동안
##어가
28
제외
##인의
bel
##스는
이를
##정을
레벨
보인다
men
ev
인물
Am
##ual
without
##시에
대해
##ittle
##이션
against
sec
##ople
상당히
그의
최대
이동
##자의
##드는
##stit
##자를
그녀
대표
look
##있는
27
##도록
##마다
count
even
##hen
##수가
##장이
through
감독
str
##ty
pass
높은
sc
te
타이
You
##cept
##up
As
##ily
gen
down
long
31
것도
##ix
##ave
##드를
그대로
너무
문서
##ute
##위를
##ank
jud
여기
##트를
char
중국
레이
##도로
##와의
##ained
의미
에서
결과
이어
##are
##ving
##ove
##로운
##사의
나타
little
cr
애니
##19
##리의
이는
등의
좋아
just
call
##리어
There
ref
##들도
없이
make
##려고
well
직접
##ents
##었고
##eg
##도를
전체
##스로
##any
##기의
##스타
##랜드
font
언급
##way
받아
way
##수를
Court
might
##ever
데미
##ible
people
much
inf
found
많다
29
##이자
##르게
##등학교
포함
관계
있지만
##지도
##ax
원래
conf
set
##ret
멤버
##mb
경우가
power
시절
##ollow
알려
##번째
몬스터
##ER
most
유닛
자신이
대한민
##전을
197
inc
있던
평가
supp
지원
##치는
마음
##하는데
전쟁
선택
sm
나오는
never
land
유저
##리지
##ished
##대의
##로서
의해
ac
##ants
##자는
##우는
life
이것
##hes
과거
ear
##일에
##10
For
fl
resp
##ouse
##aim
##운드
##정이
##land
##ffect
스토
##ublic
word
think
이에
##대를
자기
come
설명
방법
불가
##und
Fr
##ason
follow
fact
diff
##하던
cert
##ady
##oun
##중에
ret
##less
##cy
quest
##없이
##어로
최고
##ves
##있다
giv
엄청
end
12월
소속
아버
정보
##준다
tak
발매
출연
##ities
many
nat
크게
##ently
##ween
She
##점을
찾아
7월
himself
##igh
나왔
유명
new
위한
4월
let
##uthor
8월
inst
장면
##화를
##치가
##air
##이어
그는
연구
만든
inv
They
개발
리그
old
An
10월
poss
back
9월
지나
If
5월
##ific
실제로
##its
3월
아이템
##치를
##되지
##과는
because
seem
between
##ither
##인을
영상
2018년
6월
영향
##ph
조금
##하기도
무기
이루
32
dep
##어난
나온다
사망
운영
beg
또는
사랑
spe
말을
requ
##ular
ext
came
ht
##000
발생
있다는
##man
초반
35
도시
이때
##이기
##으로는
##ention
##머니
##경기
author
place
프랑
##트가
아니다
##ried
주로
sl
##ef
##에서의
우승
전부
##이터
사라
인터
##리그
##나는
##이크
##이를
공식
1월
That
##te
소환
##원이
제대로
하지
##드의
##ince
ey
consid
est
자주
##드가
그것
cond
##과의
years
##ock
##전에
##ys
참고로
친구
공격력
최종
##eal
##sp
이러
unt
이벤
##ceed
196
중요
##리카
11월
##라마
아직
##ange
##ision
take
보여주
60
##식을
##oc
파괴
Con
여성
노래
2017년
##vernment
출신
학교
강화
않았다
설정
프리
##irc
##ission
이렇
##aid
war
2019년
Sp
cor
##전에서
서로
##자로
leg
col
가능하다
역할
ent
독일
학생
##만큼
적이
##명이
##amp
##명을
##프트
person
비해
##와는
있어서
##했지만
강력
정말
비교
##ody
##했을
변경
바람
Al
##erty
마찬
가진
##리오
##ating
##ract
##니아
최초
wr
공개
thought
##oub
##odu
##격을
마찬가지
At
당연
##ah
해도
present
disc
보통
##ted
##BS
기존
##ale
2016년
##ined
어떤
등을
##이도
00
사회
##레벨
far
##cip
##였던
형태
##ning
##자인
때문이다
##히려
유지
gl
같다
결정
##ense
##alk
things
rest
2월
order
another
회복
##ided
##같은
##상이
nor
##ury
det
##osed
##명의
##나가
##디오
하며
그런데
##oy
정신
last
rece
##ope
후반
##하려
살아
사람이
##11
##동안
오히려
드래
##나라
##omet
##ob
each
##ner
##어도
##지어
##수의
val
##지의
mar
슈퍼
되고
##트로
##버스
확률
adm
world
##다면
does
emp
##대한
##스템
알고
##르면
On
##개의
##사는
question
##vel
##ident
##ize
아래
게다가
구성
while
##inal
##하거나
##iness
여자
조선
기타
##ative
interest
sur
appear
음악
div
find
성능
##대에
##음을
So
head
##점이
발견
승리
too
##메이션
within
Ed
##군의
##ived
##물을
자유
되었
dire
37
three
##분에
##ened
##는지
trans
좋다
행동
가까
플레이어
##stitution
유일
특수
add
배우
하면
##ged
##지로
버전
사실상
모양
45
claim
아예
으로
ask
##iew
##드로
그래서
##르고
purp
##나마
##스와
##ational
Mar
어려
주장
이번
있다고
스테
부족
##원을
##eric
##인은
활약
##서는
##ired
still
이러한
##했다고
이렇게
matter
##xt
노선
영웅
##rist
turn
혹은
public
새로운
정치
##회의
기사
발동
del
일단
##이기도
들어가
##sh
fri
pol
2015년
주변
194
##대가
##emp
id
His
##화에서
동시에
Comm
심지어
certain
비슷한
##시켜
##cial
##ures
ele
##ool
defend
##over
##aster
월드
What
##간다
New
put
##tic
만큼
get
먼저
State
use
##오는
##ON
gu
없어
##그램
cap
subject
보스
reason
확인
##른다
serv
child
바뀌
##not
both
necess
적용
Sh
went
드러
완전히
##ief
##ren
##화가
힘들
##임을
대한민국
name
등이
away
##스크
##했으며
방식
To
정부
Pr
##ized
그렇게
이야기
judg
작중
성우
##었던
역사
##ised
give
point
시스템
wom
수록
우리
##sw
내려
##aking
##rict
pay
차지
##oh
스트
occ
##대학교
그래도
##내는
##상으로
##통령
##밖에
##ier
##clud
##ection
성격
어떻
Americ
모델
##idence
특징
##ug
장비
nothing
arm
##인물
though
사진
##imes
house
실패
33
cle
ple
감소
한번
동일
애니메이션
effect
##uring
오브
##me
영국
Co
일이
mon
##ended
having
adv
##per
패배
차량
De
ed
생산
전혀
명칭
전에
만나
##AN
##lish
##우스
##적이
##도의
##ility
##간에
Christ
called
자세
mind
##구를
show
불가능
yet
2017
##더라도
somet
given
ins
앨범
##났다
않아
##inion
어떻게
특성
##니까
얼굴
36
Lv
원작
위해서
195
##시킨
property
equ
때는
마을
Re
##원의
나가
##eth
##ases
##이의
중심
대학
##yle
stat
##AR
이라는
##개요
지속
국내
표현
얼마
대통령
남자
##보면
##get
cannot
에피
드라마
differ
When
##어를
체력
굉장
cour
드래곤
##어버
정확
힘을
이제
가지
자동
##라의
light
aff
whether
반응
circ
par
2014년
##eng
이벤트
참여
이루어
##지에
whole
스페
##시즌
대회
하루
없었다
##200
##ued
##II
계획
움직
##장의
##라가
##보다는
상승
##했는데
참조
general
rub
기억
Go
##움을
among
##해도
night
answ
획득
enter
##한다는
기능
offic
sy
출시
prin
eyes
받고
##ST
##공격
다이
##이었던
##selves
여담
All
그리
##ts
인정
가져
그나마
##체를
바이
##50
쓰는
min
##제가
Is
34
Lord
Eng
다양
데뷔
그림
Ct
##ps
contin
문제가
suff
num
담당
##ior
에피소
아마
80
##12
항목
##상의
sw
판매
경우도
return
하였다
발표
##으므로
want
2000
bus
full
따라서
70
경찰
country
자신을
##게임
##ins
consider
수비
held
##트의
개요
friend
tax
##itted
##ways
##ances
중앙
덕분에
마이
선발
있기
Act
##ern
이름을
er
하는데
물리
##ters
진출
대체
##thing
##tern
##라면
조건
perf
상위
설치
##ased
taken
받은
1일
##ages
ke
##IN
##조차
공격을
했지만
하이
style
took
번째
##io
left
주의
##수로
##ling
##ains
##alf
##피언
heart
500
고려
있게
bu
##of
##osition
입장
conc
개인
##ton
밝혀
Ind
##치고
##문을
##px
accord
등장하는
##합니다
사용하는
넘어
##here
love
2차
near
term
stand
thing
##ism
축구
##iction
##레이드
##0년대
respect
않다
##수는
##az
남아
해서
##사로
가능한
##아가
face
##rop
done
##ives
자체가
sou
순간
direct
요구
##vers
38
건물
##했다는
##으로서
Then
어머니
비판
참가
ph
##ik
##ork
우주
kind
sim
whom
##ting
##들에
다르
대전
bre
시점
한정
hum
##ars
proceed
##겠지만
##했으나
disp
따르면
스토리
강력한
편이다
각각
더욱
대해서
Be
##리티
##도는
##지지
193
hold
##제를
구조
##ici
##arge
Cl
sent
##권을
cent
확실
##한테
less
마찬가지로
없고
01
ser
교육
러시아
therefore
굉장히
##ines
##als
##군이
princip
##스러
produ
##부의
ruby
상대로
##ared
until
belie
##oney
결혼
##수록
시간이
##적을
brought
tell
##나이
경험
however
사람들이
##ination
어렵
##되었고
##위원
words
못하고
need
챔피언
don
프랑스
##문에
어린
위험
read
히로
대미
##row
피해를
##gg
폭발
아르
##가가
once
아주
##치로
후에
exist
##티브
##계를
프로그램
나와
어디
09
못한
##oint
##ml
무시
논란
##라운드
단순
지구
준비
보내
진짜
가격
##road
##aintiff
사용할
현대
불구
fam
##이라면
except
##전이
Le
tri
##부에
과정
##량이
dem
##rew
초기
##되면서
제1
judgment
크리스
young
지하
##리기
##장은
약간
##인트
pat
후보
contr
happ
##BC
2013년
사고
##ety
always
나머
여기서
##loy
##감을
이라고
ll
##하였고
있었던
활용
##att
##으면서
가족
partic
주요
가능성이
클리어
엄청난
##선을
##부를
Rep
##까지는
패턴
const
iss
##ified
##로스
하자
##레스
##lied
쉽게
##학년
동료
메이
말이
일으
가는
government
object
알아
##장으로
saw
##ured
course
##장에
##리로
##라인
opp
Cong
제공
제2
제한
가면
Joh
03
방영
##히는
190
벌어
##ius
##대는
##ird
##체가
action
##ession
html
##iled
당연히
방향
등장인물
발사
버스
제국
since
##etition
시청
imm
쓰러
02
마스터
plaintiff
Pro
작은
##지션
dra
##ror
TV
water
opinion
FC
color
##리와
express
##갔다
브라
분위
선거
##려서
수가
##력은
2018
##ying
여전히
fur
coll
블랙
My
##isd
##없는
훨씬
현실
주는
##시키는
05
prev
90
mean
특별
sat
속성
07
강한
##키는
08
부산
##anc
내가
##비아
##놓고
##이즈
2016
others
보호
불구하고
hands
혼자
death
Br
##wards
대사
##정한
유럽
받는
39
ve
파워
##uit
2012년
Comp
##겠다
이해
적을
##대학
real
##난다
보니
조합
##uc
##되며
##개를
##OR
##만한
그가
48
Tr
잡아
##타를
이다
used
전용
잘못
##위로
##식이
##세대
##해주
##제로
##프로
##업을
cur
underst
기간
나는
방면
그를
##AT
받았
나이
##cm
취급
ground
##심을
contract
side
해결
John
##정도
true
도망
한편
##ash
days
##학생
doub
ter
42
room
four
##ble
sign
##ately
본인
영향을
국민
추정
##행을
계약
소모
아버지
06
##ony
##자기
라인
##장에서
##ides
퀘스트
지방
기준으로
##urch
el
생활
##IC
second
##ield
의견
##ably
소개
prot
##한다고
##ung
##ually
55
feel
father
##ten
##카이
처리
모드
##만이
few
##프를
estab
thus
43
보는
역할을
money
삼성
##겠다고
차단
최근
않을
Or
##ream
연결
##EN
자연
##ians
##ison
business
city
문화
타입
How
이탈
##하나
##방송
44
vo
##km
cause
clear
##만에
sever
영어
##li
국제
high
mo
문제는
등장한다
##위가
나무
오른
##듯이
##eed
##ule
cases
##야마
decl
prom
예정
191
받았다
lim
하여
##irit
##기고
##나게
##로를
determ
##crib
충분
아군
189
##사와
##ows
부활
mom
##ural
번역
이유는
red
Congress
company
##irl
above
중요한
grant
##이면
##위에
evidence
것에
오래
들고
다니
스스로
common
means
04
미션
import
##ched
유니
either
졸업
세이
##pr
##ected
themselves
느낌
목록
purpose
##edi
##used
장착
##시마
##ices
##자와
되면
##uty
##ister
employ
regard
necessary
아이돌
운동
300
운행
##세기
Sec
ben
##데이트
보이는
##isions
##가의
Ph
다양한
spec
Bo
got
조직
writ
이유로
종료
##가를
##입니다
##aining
엔딩
beh
##신이
구간
낮은
관리
##AL
##들로
비롯
전문
##로가
tra
말한다
경제
itself
##왔다
mil
##조건
##시의
Gen
tre
##gan
2010년
경우는
sch
view
mod
going
2019
##aring
하기
에피소드
절대
##ann
수상
##져서
연속
body
Now
##isl
에너
heard
75
##명은
HP
47
속도
##일을
##son
##신을
##라를
##구가
##단의
##만을
##운데
출전
half
##트는
##ote
배경
2011년
asked
fell
something
##aps
타고
##ks
중에
종류
다음과
size
seen
##켓몬
##erc
small
##하다는
스피
##겼다
account
##olog
달성
Gr
nature
##ept
Sup
open
독립
만화
##소를
되지
소설
##냈다
##였고
##app
##atch
업데이트
rev
##말로
Oh
keep
생존
##라서
메인
##자들이
priv
검은
목소
##성의
항공
##사에
##초에
민주
whose
##ric
수정
1회
gave
##전의
제목
##시로
##유의
##카와
밖에
더불
야구
##by
##성은
better
스테이지
하면서
46
대부분의
##cted
자리
##다니
배틀
obs
##지게
section
##하다가
##력으로
##당한
대상
Ex
##기와
##augh
계열
유리
vi
반면
나왔다
이상의
##lished
싱글
jur
만약
##itions
che
##HE
현재는
반대
##회를
난이도
##unt
##의를
##스티
근접
188
##ump
##에게는
es
further
Just
##르크
전설
나머지
sk
##일이
##sequ
##reed
##지기
##ipp
일을
##ature
##신의
large
##ring
분노
abs
##most
높다
##이로
일정
home
Bl
##시켰
##같이
Pres
192
hel
일어나
##점으로
##por
sil
hard
지휘
시도
##ember
Miss
authority
known
laws
##하라
##디어
plac
표기
위에
best
number
##ex
##으로도
가끔
##ully
##함을
187
SK
looked
두고
moment
더불어
##비가
얻을
목표
##리며
58
oper
정도의
미사
charact
##시를
최소
##려는
Nor
##비스
##스킬
nam
##uss
bill
##리게
##마저
제외한
##리면
##ula
항상
##ron
Par
##원은
pract
능력을
appro
성장
##irm
비행
during
여담으로
##하다고
링크
##clus
result
##혔다
##gether
##원으로
생긴
186
together
공연
particular
아들
orig
##고등학교
##종의
무엇
told
##ues
49
allow
유명한
vs
includ
##aj
##부가
싸우
##시가
dev
##관이
인터뷰
##30
##모토
Ad
해야
엔진
soon
##로우
북한
괜찮
신경
좋지
##ude
##세를
##resent
##다운
비밀
##어들
petition
free
says
없음
seemed
book
prof
##치기
##undred
부르
스파
##gr
자랑
knew
according
##fer
defendant
woman
소재
타카
거기
##냐고
den
포켓몬
##idd
##학과
사람은
##타로
아니고
오늘
##여서
var
##세계
사실을
##었지만
##tain
##ane
작곡
##uck
미래
로마
##ency
다르게
소녀
king
부여
정식
##ivers
##16
different
빠른
끝나
Sc
##되었으며
##ticle
1위
##상에
##물이
각종
##mber
##페이지
##ested
이끌
상황에서
King
##되기
wa
##선이
바람에
그룹
누구
##ital
연출
##for
##15
##스테
##비를
##oot
##stem
six
wind
전차
door
II
hour
기관
##스럽
children
##단을
amount
##48
불러
##이라도
이외
##타임
Not
##어야
적은
것과
##par
bank
만드는
##arm
등으로
##18
악마
일본의
hundred
52
##aven
##주고
rights
##수한
아키
ill
행정
##reme
hon
report
##었다고
스포
bar
엘리
##었는데
##으로써
건설
모습이
이름이
##elt
##호를
##외로
comple
##ederal
연기
##스에
전국
##러스트
##미가
하늘
##uted
##대표
By
2015
tit
훈련
##주를
treat
dr
결승
따로
못했다
전작
##스코
##내고
mere
있다면
fall
전반
종족
클래
enough
passed
##무를
##림픽
묘사
##oses
##부터는
별로
record
시전
##enn
제일
##isc
공중
위치한
나서
99
과학
legisl
##선의
##버린
##40
##호가
데미지
##트라
##나의
분류
보이
##urd
##스러운
직업
##une
달려
lead
##ets
manner
##해진
##움이
##서를
1년
56
나름
못하는
##스토
##FF
정작
아프
갑자기
경우에는
help
refer
사냥
##부로
특정
Pl
character
Mrs
일행
##음에도
없을
##13
##ator
coun
white
이하
##ached
human
##군은
않게
htt
With
머리
모르
아카
##ea
자세한
##ley
각성
mot
rather
##omp
명령
이탈리아
예상
있으나
평균
##ruction
있으니
뒤에
안에
proper
확정
보유
##어의
파티
예를
지도
근처
효과를
jurisd
##outh
##istr
Car
##능력
다크
Do
##동을
##더니
인천
mer
##eb
test
이름은
##ctions
five
존재한다
식으로
##고를
##역시
필요한
##지면
인구
압도
##고는
개념
ca
statute
##AM
집중
fin
연합
교체
##카드
##oke
안정
cit
##란드
##스케
blo
agree
1차
##단이
become
##가와
이걸
게임을
최고의
상황이
##use
One
보기
지켜
believe
하게
##utes
##oud
hist
quite
thou
care
mark
##ney
##oly
##파트
나타나
earth
ste
##ledge
지정
jurisdiction
##야말로
시작했다
##enty
fear
본인이
##iving
케이
##인으로
##아이
이게
이쪽
탈출
사례
생명
파이
기다
##시는
잠시
##ists
2009년
나중에
meet
EX
있으면
##ES
기대
received
대기
부모
최강
##ament
understand
이용해
##ics
죽은
##율이
##ned
수는
가까운
나올
viol
several
물건
등급
나라
Will
temp
##ov
next
##제의
##alth
발전
갖고
##AS
외국
girl
##바람
dest
suit
경쟁
Ab
트리
##ready
faith
##raph
##단계
soul
class
치명
party
65
차이가
##플레이
언제
following
기반
없다는
mother
##버렸다
making
고양
conv
남성
gener
KBS
배치
150
##속도
지지
##14
im
spirit
제거
port
relig
사용자가
##드시
사용한다
##소가
art
exec
애초에
##군을
준다
빠르게
truth
lib
기계
야마
##았던
59
지난
가운데
##haps
##ript
lab
것이라고
##AC
##olution
없다고
##보는
talk
2008년
설립
##로의
##IT
죽음
##ott
달라
##hip
건담
포지션
이후로
turned
부정
53
수행
월드컵
eng
##iod
line
디자인
unc
이야기를
almost
중에서
처음으로
American
특이
town
블루
54
loc
##irt
##러스
sing
57
무슨
완전
사이트
빠져
새로
##ivid
met
소련
sup
THE
office
듣고
군사
school
began
##일본
##ering
##ising
##lig
했으나
##낸다
회피
2개
저지
##됐다
이적
라이브
타격
아니면
본래
already
##량을
persons
발언
##men
변신
##원에
바꾸
말에
##이니
dark
사이에
##ges
지배
##만의
##화의
Company
##쪽으로
##be
##세가
여기에
Of
em
hor
##ength
카운
##버린다
See
도입
##alt
son
대구
##세요
succ
anything
##ences
64
system
##yp
speak
##지와
##17
##주로
applic
##akes
어둠
직후
board
##이란
formula
alone
남은
업그
simp
##ousand
무려
그녀의
3일
복귀
run
도쿄
##isf
등장한
represent
##속성
미국의
범위
doubt
포기
##어진
연습
동생
대한민국의
became
least
날아
bring
lay
위의
소리
wife
투수
유사
##역을
돌아가
deliver
되었고
##간의
##라스
제품
stud
도착
시험
##냐는
##osp
##무라
expl
##크로
##일러
##즈의
가르
이건
fav
1개
gra
##치의
##요일
가문
역대
##세이
##asure
삭제
sit
보아
고정
MS
해외
있었고
접근
times
circum
York
과정에서
##TV
66
동물
organ
살해
지상
##부는
##감이
상태에서
IP
##심이
주소
ra
사람을
일러스트
했던
period
round
##었을
이라
2014
age
반드시
##롭게
유일한
##ality
부탁
##이닝
##세트
##대전
관한
support
완성
##많은
조종
##ship
thy
2000년
##크를
##터를
fire
##cil
유튜
촬영
##상은
strong
President
App
기동
##진이
thousand
때마다
알게
상관
myself
##gy
저항
##였으나
##ina
rule
error
##적으로는
##에만
##ulation
##로부터
sett
##lf
##수도
##미를
##owers
##로드
##들어
force
인도
##apter
완벽
받을
효과가
공동
보다
오버
answer
short
constitution
##시브
##트리
ship
##ek
trust
##로그
month
추천
##지라
creat
타이틀
이곳
상당한
##타가
title
쓰고
##스카
##gu
lear
##anger
play
feet
추측
##orning
중간
inform
정규
##점은
##기관
##마자
##차가
끝에
자체는
3개
service
프레
compl
ten
탈락
sure
##교육
Well
요시
2일
##프가
##계의
appeal
미니
##계가
정상
wo
회사
분명
##체의
##효과
##ees
##ED
commun
인터넷
adj
value
acqu
vis
주민
마무
전사
심각
히어로
뛰어난
##너스
2020
These
##ogn
##right
앞에
command
##지면서
전략
LG
black
바다
Yes
62
전기
aw
##ats
2007년
begin
Government
환경
충격
없지만
유일하게
통합
ST
다루
##fe
점을
마사
##온다
##iously
##받은
et
구매
판단
크로
레드
##특별
##주가
##라이더
bound
느끼
why
한다는
English
paid
av
##기사
반대로
fore
##uly
정의
자리를
voice
봐도
##empt
베이
400
실험
카이
##ode
stru
##르트
시간을
Commission
##though
rail
보여준다
도중
##미널
합류
##레인
올려
많아
vol
가수
forth
fff
##화국
##진을
파일
ver
치료
##민주
롯데
무장
몇몇
Let
공간
상태로
싫어
Min
경기를
우선
##ped
##ivil
##essed
##크래
있었는데
연재
##것도
##ises
경기에서
카드를
좋아하는
다소
citiz
##탄을
district
##angu
##키의
공포
높아
##ms
þe
점점
parties
km
암살
프로젝
##술을
2회
했는데
##되면
되는데
General
없어서
##적은
After
Me
시설
provided
제외하면
##용으로
종교
2년
싸움
##read
화면
##iam
생각해
individ
##atic
##시킬
조사
기념
주고
##80
##광역시
스코
##장판
1000
시대
이로
홈런
possible
knowledge
##우가
듯하다
##키가
리더
전개
courts
##gress
due
stood
##호선
##rupt
##센터
##도에
##보니
peace
도와
Her
##화된
무조건
기업
##wise
종종
##석이
##ger
##지역
##한다면
##형을
##분이
till
often
ann
##두고
along
##마가
않으면
decision
air
정리
walk
Constitution
##보를
##겠다는
맞추
morning
시리즈의
아내
##체는
##니티
그린
deb
수많은
장갑
##력과
1번
pap
##ught
평범
inj
instru
##선수
felt
제3
wit
doct
올림픽
의외로
##보고
떠나
##다른
sold
##icult
##FA
15일
빨리
exerc
마나
컴퓨
최후
May
##IS
그야말로
##크가
##모가
hear
##운동
##적이다
MA
120
##acy
팀의
도전
##cribed
##ral
circumst
##바이
영혼
그리스
10일
요청
장소
인한
Justice
sle
부하
fac
##EC
##하였으며
eff
##oon
대중
##amm
##ook
##uct
##금을
##inary
확률로
하드
작가
arr
corpor
에이
fair
##시오
bea
대화
소유
sun
기본적으로
##문이
생성
워낙
무한
bro
이름으로
있었지만
##fully
다행
버그
##아버
개그
##한국
appoint
entire
##지에서
개최
lands
데미지를
recogn
변화
individual
85
##kg
옵션
5일
perm
##자들은
##illed
poor
##식으로
##인가
로봇
아무리
ye
붉은
memb
##받는
difficult
accept
적의
180
##velop
##어는
##였지만
가서
전통
incre
En
##umb
##차를
rul
오프
sense
것처럼
비중
굳이
duty
어려운
알려져
진화
철도
상징
##마의
그걸
오리지
##관을
사업
close
Fl
mor
중반
ap
2013
##질을
지키
2006년
충분히
prob
##터가
Dist
SP
##olic
process
dead
##ards
##정에
투입
required
Se
bond
외에도
패치
평소
##리온
live
탓에
위협
데이터
##fff
Col
sound
##enth
indeed
##사카
##reg
표시
##iet
불리
능력이
##VE
##방을
홈페이지
트위
##사이
20일
##동생
30일
##gin
하나로
안전
##나다
대형
비용
emb
ffffff
끌어
##시대
leave
##ience
사무
##ii
Man
neg
##구의
##르의
이와
명중
사기
##력의
##회가
최초로
##크의
운용
##했기
비롯한
##reen
##시키고
25일
의하면
Cr
대응
희생
##하도록
##IA
조작
범죄
members
##시킨다
##erved
76
##그룹
##남도
##보다도
돈을
185
성향
##에게서
72
거기에
##아의
##이므로
##석을
##ries
family
##쪽에
77
선생
있지
##인과
##원에서
infl
##OL
##지며
success
등에
master
##왕의
언론
보조
##이와
손을
MBC
생각하면
Ge
road
##니스
AP
##vey
##판을
affect
##텐츠
##itude
거부
##승을
맞춰
##쳤다
선언
Why
않지만
##orts
##ey
##조의
듯한
past
말하는
나이트
7일
경기도
특유의
##정의
화염
시나
대결
##래도
사람들은
4일
##드리
##레이션
##려면
다르다
##마법
받는다
suffici
trial
##먼트
##reet
순위
brother
주문
##aged
##ster
플래
##OS
확장
28일
본격
점이
benef
공략
태양
##안을
##ization
67
클럽
카메
sea
무리
관련된
간단
thee
polit
개조
때까지
##정은
일어
다운
본인의
했고
stock
VS
##ape
가깝
63
포인트
2번
스타일
개봉
작업
세트
시기
langu
##하려고
사쿠
##라우
사격
Ag
##나와
재료
최초의
스크
entered
네이
women
보였다
##시티
ce
2d
시민
장면이
##졌고
반복
lit
빼앗
build
얼마나
그럼
패러
##드에
바라
##소녀
얻어
체력이
밝혔다
기존의
##드와
eas
입고
##미의
provisions
##세의
##모를
move
마르
점령
살인
나오지
열린
##inistr
이기
##cient
마리
교통
##ler
pray
##음이
##ume
방어력
##자에
super
##전쟁
perhaps
내용은
alleg
else
cover
데이
##ending
##토리
##티어
Germ
##yond
##모로
유튜브
서술
##now
통과
##iting
##이야
##나무
##사용
##ない
서버
deep
mention
##hib
start
##소년
ut
##성에
gent
힘든
able
난이
##ively
##으로부터
##리자
##부에서
투표
불과
코스
##치게
dri
third
sin
##con
list
지금은
14일
41
2012
##하자면
##ene
오랜
소년
붙어
27일
점프
내에서
뛰어
##았고
##때문에
##자들의
belong
##호는
##었으나
##명으로
되면서
facts
사는
거쳐
##asion
later
conn
95
은퇴
##주시
때도
오리지널
Har
##로도
적에게
##모리
polic
앞에서
##초등학교
인식
exper
중심으로
영입
##러가
오르
subst
seems
satisf
##attle
Pet
좀비
und
special
##경을
데려
몸을
stri
##성과
오오
##도우
##PS
##airs
##구에
##고속
필살
스위
former
chief
21일
##ches
##어요
말았다
##cript
##arch
##해졌다
sac
26일
##정으로
##해진다
8일
letter
무사
##yn
cut
##문화
후속
##이상
있었으나
마치
gone
##ishop
latter
모르는
Bar
맞는
PC
position
던전
##itten
##약을
인기
##기술
perform
아니지만
natural
sal
##도시
사태
sudd
대표적인
요리
##ability
12일
목숨
##ining
##이었고
있습니다
여름
브레이
stop
17일
살아남
sudden
68
Part
장난
앞서
2005년
##분을
정책
Church
##루스
적극
twenty
선정
프로듀
oblig
미드
##하니
보상
승강
그저
##마트
carry
바닥
진입
govern
6일
exc
District
##oup
올라가
대단
hope
18일
##자리
##보자
16일
저격
bed
거짓
enem
컨셉
##회에서
오토
11일
##sec
cred
자료
서브
##★★
채널
##실을
flo
고대
##ortun
##els
eight
##리트
##ots
소비
##very
Sir
13일
bas
22일
그때
막아
맞아
##단에
##었으며
원거리
##uff
lost
span
##임이
below
##인들이
꽤나
아는
##iki
##iar
24일
##크래프트
##oph
##aterial
##이에
상세
##우고
river
develop
마무리
23일
##해를
##든지
##등급
require
그려
purch
##ench
이들은
##amb
self
먹고
Sch
##만으로
##힌다
##제는
무너
아름
gold
69
##itting
##론을
모습으로
9일
부대
America
##방에
관통
대해서는
불안
수호
초대
##스에서
##역으로
사람의
적절
19일
pret
Article
##ush
특성상
##lement
wonder
보병
##yr
단순히
도로
change
##iding
디지
dam
possession
##60
fif
스카
looking
원정
고속
성우는
##형이
Char
마음을
요소
득점
pop
기체
##cially
appell
금지
dear
부분이
하나의
꾸준
88
받지
Te
이후에
왕국
exam
##ilt
##하므로
##bit
Can
##버리는
광주
##르가
미리
terms
더블
골드
고등학교
civil
Qu
스포츠
날려
coming
circumstances
virt
상황을
방문
부르는
neither
##스럽게
##장과
29일
considered
손에
지닌
##복을
discover
거대한
##르기
분리
문제를
immedi
##법을
앞으로
ought
전환
거두
##카가
선보
##트롤
마침
73
##LE
##지자
separ
대비
https
demand
pun
허용
perfect
##25
##연히
really
##199
나쁘
아쉬
##마를
비난
condition
노력
##피아
국회의
파트
##itary
secret
##ones
Per
모험
대학교
beyond
ddd
완료
##전으로
##하려는
From
##개로
점은
방패
죽을
maint
음반
단계
돌려
##코의
그레이
##ests
established
자신은
누군
pen
##마을
##었다는
##위는
카즈
post
알렉
##북도
등록
unless
##ames
##ification
비고
England
depart
2004년
##리스트
183
mis
##워서
##답게
탑재
##aught
착용
##cious
##essel
SS
조각
거리
Coun
##한데
##ken
##OU
##철도
인사
cost
의한
아나
구분
설계
차이
##ddd
##방의
감안
유우
13px
design
dddddd
##프레
활동을
##선거
invol
##이라서
해군
decree
연장
사과
##주차
병사
##률이
노동
taking
Cal
##ai
##중학교
fix
##aughter
보컬
##고가
##이름
##미야
Where
확실히
##제에
##즈가
부른다
제압
까지
확보
##정보
구축
history
##urity
일반적인
유래
##사건
##사키
##위의
3회
페르
##RE
갤러
컴퓨터
purs
Phil
##inct
추가로
cop
포함한
비교적
인기가
important
##놓은
##무기
##렀다
도움을
##위원회
##에게도
Chapter
mag
behind
##day
##호의
승리를
레어
##시켰다
stated
점에서
임무
남편
한국의
##soci
황금
##ustom
Dr
gentle
adop
3년
##anged
##교통
##루가
일은
이란
##이었으나
##body
returned
##전은
##atever
##aves
##que
boy
팀이
74
##리안
상처
##바로
지니
모티브
although
논란이
##omm
jury
##나를
##58
51
대답
경상
cross
esp
지적
딱히
War
눈에
라디오
bes
unto
remember
answered
##상태
그에
grow
희망
consequ
wish
##RA
만들어진
솔로
가게
만다
##타는
카오
original
명의
##랐다
작성
national
바탕
편집
hig
##가로
##규모
##gn
상대가
불명
Brit
때의
##디아
걱정
쿨타임
정보를
vessel
시작한다
##이치
해제
##악의
sugg
아프리카
정당
Don
라며
몰아
##였는데
캐릭터가
대공
라이트
heaven
600
##친다
##화에
차례
##PC
##에서만
78
##진의
issue
떨어진
수밖에
intr
towards
##ify
고통
##소속
인류
버프
말했다
carried
코믹
##웠다
##차로
나누
herself
스킬을
##전사
commer
아시아
##골을
##산을
continued
110
##성도
enj
이유가
흡수
step
##rove
accomp
나오고
intell
Here
##lect
시나리오
부터
곳에
분야
##을때
타임
Rom
##라와
##ham
##ID
Cap
##시한
일어난
##endment
그만
Jud
녀석
##anch
remark
드라이
커뮤
Eur
##까지도
방해
업그레이드
000000
이것은
184
fre
Lou
##ae
SBS
98
한다고
kept
삼국
유키
##24
notice
뮤직
액션
멸망
MP
멀티
에너지
replied
이용한
본인은
summ
Jes
##erve
deal
임명
language
##aving
cal
##OM
mount
안타
해석
##sent
fund
못한다
entit
##ium
사령
greater
필요가
##코가
기술을
국가대표
##식의
##시스
장기
cried
연주
기원
잠깐
fig
##ciety
육군
##arily
주목
##ls
blood
이사
##역이
##마스
complete
측면
##구나
##uture
written
서비스
##랭크
##히고
##ead
##다이
##hold
짧은
86
가리
봉인
맞고
어찌
foot
소울
##미는
##ajor
가슴
오후
겨우
conclus
79
궁극
##ift
끝난
필수
사용한
##신은
followed
##화에서는
fail
##트와
##선에
스케
establish
##리면서
만한
여행
373
##ropri
에이스
##자들
control
없기
##생활
##구는
fort
##ressed
잡고
draw
형태로
##하의
##토가
듀얼
유도
엄청나게
뿐만
동맹
포르
어렵다
해금
##der
concern
모아
젊은
##권이
material
97
##사항
wall
크다
말고
어느정도
##연구
##icial
##프의
보급
##발을
##물로
아스
평범한
800
regul
형성
가정
먹는
##val
약속
##받고
되며
단체
초반에
되기
보이지
96
wiki
최대한
느껴
date
불리는
##렸고
##thern
charge
##side
능력치
끝내
다름
나카
recover
이전에
걸어
2루
private
이미지
susp
로드
idea
Pe
따른
worth
states
용병
코너
situ
멀리
바꿔
##ION
##이던
##과학
sale
friends
foreign
패시브
속도가
##량의
##동이
mort
##22
밸런
##ilar
judge
county
스페인
효율
##질이
종합
떨어져
내부
2002년
직전
바뀌었다
물어
예전
대놓고
히트
지명
게시
##상에서
87
##포를
##서가
##당의
patent
##오카
폭탄
anim
힘이
##력에
evil
##ino
##band
거주
당선
트레이
arri
##였으며
자신에게
##아웃
##임에도
##웨이
84
##yl
밀어
콤보
##ingly
##공을
##물의
평가를
미사일
내용을
defendants
재미
그녀는
Law
##품을
2011
레전
사이에서
##조가
뉴욕
거야
끝까지
##즈를
이것이
tou
##ev
83
컨트롤
지옥
##iful
레이저
Stat
##사에서
##ross
##키를
어울
공통
제외하고
중단
various
게이
생기
##dom
##잖아
##let
전술
이야기가
베이스
모자
얘기
##하였으나
유용
hus
전자
눈을
Sm
##시장
게임의
등등
한글
바뀐
있도록
개선
수치
애매
거절
##파이어
PS
plan
inqu
생겨
##자에게
이후에는
appeared
중이다
##str
sight
##락을
뒤로
거대
둘러
##마리
around
Was
occup
Aug
cast
처치
saying
습격
bur
der
왼쪽
##함이
doing
##ires
##판이
fun
Europe
##군에
부담
광고
low
강제
걸로
witness
받아들
##회에
mus
consideration
시내
##OT
works
길을
argu
dom
팀을
##irst
##aud
##대에서
##적이고
광역
occur
##US
##메달
##트에
arms
##량은
무기를
진영
##GM
재생
Secret
##보기
##어져
tend
증거
##카의
##되기도
귀족
##디션
##권의
뭔가
capital
스탠
힘들다
제조
본편
디자
수준의
미나
사상
뿐이다
황제
render
prep
Cor
소리를
##itor
Christian
##안타
자살
문제로
territ
집에
당장
못해
##까지의
ir
센터
citizens
Geor
##스포
2003년
##다시
assign
##semb
March
##드라
Rev
단독
##avy
entitled
FI
2010
타이밍
도움이
보여주는
3번
사항
겨울
인기를
상대의
알려진
Pa
French
개편
##오의
실시
influ
발휘
officers
##비의
trib
##가능
occasion
sens
원래는
##ored
motion
89
swe
acts
##은행
##하게도
##론이
##달라고
스펙
##uous
prevent
early
plain
개의
sort
때부터
달러
신체
추가된
##conom
##특별시
##이었지만
아야
행복
##하기로
##쳐서
powers
처음에는
jo
##게도
##리나
danger
##a3
아웃
Cath
테러
극장판
##계에
church
##지마
legal
계산
##즈키
로켓
merely
없으며
만들었다
테마
##오프
에어
속에서
##수와
compan
##ically
##토의
음식
수원
bad
흔히
메가
상대적으로
##uf
싶어
구입
##EL
2위
판타
commission
Mad
none
##타이
출발
필드
longer
##ole
부상
conduct
fine
원하는
중화
##epend
##구로
enc
proceedings
간다
스킨
산업
중에서도
table
wrong
bit
온라인
랜덤
주연
thereof
living
##관의
근데
##느냐
future
parts
케이스
누가
Father
자이
died
플라
기절
added
##라며
Up
espe
##만원
##전투
아침
educ
##utions
wood
스탯
시티
상황에
영구
카페
하나를
##와서
##심히
줄어들
반란
조준
Mc
##21
##스탄
죽이
##타의
administr
payment
아무래도
##itation
##aries
대미지
##ips
아오
데스
##관은
위에서
##지원
Ant
laid
##되었는데
사건이
상대를
##port
않으며
없게
##언을
2020년
250
conditions
떨어지는
affirm
상태가
makes
meaning
##스턴
민족
AT
Tw
##che
태어
##주인
##개월
향해
##성으로
##우의
##라리
##ibility
granted
##FC
##피스
파악
##imate
해주
늘어나
quar
성적
policy
현재의
비록
패러디
##자들을
sufficient
근거
자기가
US
receive
##겨진
그녀를
sir
충돌
##끼리
관광
꾸준히
홍콩
탑승
##치지
채용
##사인
하나가
그들의
##정부
미친
Gu
쉬운
##있던
싶은
만족
led
appropri
##도와
sometimes
otherwise
everything
지하철
책임
whatever
##전차
핵심
시작한
##데미
##영화
기획
실질
##향이
##23
무게
##격이
제안
placed
purposes
##a3c
의심
troub
deg
373a3c
shad
오스트
mist
31일
그게
William
##터의
National
##lex
##idge
##대와
생물
트랙
##토를
##단은
##hood
넘어가
작전
건너
혼란
husband
바르
bri
인생
##패를
quick
사실은
##수에
lady
머리를
존재하는
##할때
across
배신
##ories
말해
안습
화살
위로
follows
##antly
obt
게임이
##AD
오른쪽
반영
##것이
밀려
med
있으므로
decided
붕괴
political
##되자
탄생
대장
##na
##LC
##하러
##ient
오는
당시에는
wat
##긴다
##anced
맡았다
##형의
##olute
##tered
##니어
principle
##되는데
아라
발음
고유
##하이
##riage
93
사람들
공격력이
우려
커버
##ocr
훌륭
##권에서
온갖
##tion
##인지라
##오가
##roy
내용이
##조를
Lond
##로서의
application
Thus
##아파트
cre
살짝
##방어
federal
field
표준
이상한
addition
방식으로
front
##주년
대다
돌파
동일한
##받아
##af
mill
아사
fight
##ien
그럴
##VP
especially
서포
나쁜
활약을
##시리즈
##eness
처음부터
지급
##mer
##uties
어쩔
약한
입학
##지컬
설득
##where
##점에서
##ening
주어
delivered
일반적으로
했다고
버튼
그것을
외에
born
마지막으로
London
##베르
인간의
##타입
ready
##스트로
마법사
##니가
Sw
AR
##프리
무력
하위
##마루
##aching
forward
고민
##ike
제시
한국어
기록했다
House
그렇다고
##당이
필요하다
한화
경유
sole
아메
##았지만
Some
않았고
둘이
두번째
않기
레인
강조
주도
##ours
통일
reached
Federal
Jan
Rob
##cience
##하기에
동아
##ask
연계
들어오
##었기
마이크
esc
말도
즉시
squ
construction
신뢰
해설
납치
##리다
dism
watch
Ob
##기간
##OW
##자키
##urg
months
III
##보스
뒤집
언어
contro
questions
속에
note
Count
공산
모른다
personal
##거리가
deed
당황
miles
그다
실력
contrary
##영상
가로
여겨
##비는
돌격
assist
플레이어가
무서
pri
Op
cho
CD
comes
것이라
##줬다
모션
초월
중간에
non
가입
시점에서
claims
##OP
##먹는
##메이
##등을
명예
god
sleep
일종의
위키
파이터
94
##유키
##공항
##전에서는
##차피
입은
클로
자원
확률이
스페셜
##하긴
실행
데미지가
하기도
##대회
사람들을
dream
respond
10년
##osing
justice
보수
##owed
including
후쿠
규모
열심히
두산
Love
Ap
놓고
추정된다
##AP
오프닝
hur
##기인
Ne
공주
Louis
점수
얻은
exercise
mentioned
railroad
라이벌
principles
imag
대륙
은근
single
##ends
쓴다
늘어
##rif
김성
마츠
단점
드랍
사거리
갖추
eye
Council
얼음
때려
##claim
intended
Jesus
##시와
미야
제로
브라질
인지
##독교
##트남
petitioner
##개가
이승
오리
##님이
##기만
교환
만들고
information
La
버티
##디언
Him
바탕으로
appar
##방이
역전
1위를
2001년
프로젝트
Jew
갑옷
##iment
공항
##구역
##oe
sol
pie
comb
않아서
마녀
들어가는
counsel
CV
equal
하다가
내에
##되었던
##action
하던
커뮤니티
받게
##판에
정령
stra
##ethod
##만은
##왕이
만에
수리
##크는
##시코
subm
옆에
##무원
attack
형제
El
wild
provision
century
마련
##br
##ingu
카드가
들어서
beginning
##해져
##선에서
주력
단일
절반
이들
similar
##ology
댓글
August
북미
constit
existence
##ald
아이템을
##점에
와중에
desire
시행
##to
Su
나의
것이었다
사실이
##스키
##선으로
서울특별시
밴드
##았다고
##화로
조정
브랜드
##번호
##ox
##리언
82
되자
bear
invest
local
정글
트레
정말로
어차피
##머리
econom
선배
##lay
##리티컬
분석
내내
그것도
공격이
##연합
여러가지
##iddle
붙잡
issued
박살
##70
CP
제주
쓰지
##cend
구단
재능
눈치
격투
corporation
들어간
##선은
스트라이
것이라는
이름의
##국가
만난
감염
게이지
수입
격파
religious
이론
뉴스
울트라
암흑
1인
June
뽑아
우승을
집안
##동에
##90
정체
prior
오픈
pain
furn
디스
##되었으나
##등장
교수
베르
##았는데
가득
allowed
pub
##관계
나오는데
그곳
##면서도
160
big
덕에
역으로
프로토
##워드
건축
안드로
이르
horse
5회
sum
고급
##문의
strange
카르
부분은
rate
enjoy
appears
##기타
그다지
사정
Who
la
##isp
##말을
determined
카운터
##국이
소멸
외모
하수
카나
won
공을
계승
matters
수학
##식은
정도는
이래
##리아의
##데스
##술사
화이트
벗어나
보여준
##기에는
##하시
경계
됐다
쓰러뜨
내구
agreement
##들이다
캐나다
살고
마주
##어주
##세는
wid
break
doctr
prison
XX
행동을
연예
적도
세력
seek
##uses
##고로
##판에서는
##well
cold
안되는
추가되었다
외교
##하지는
사람도
##스트를
##증을
##utiful
##단으로
한때
##해지는
AC
##진은
아우
일부러
length
일본어
그녀가
해적
국회의원
출처
fellow
##스팅
Secretary
공유
그만큼
메탈
##지방
##서의
##직을
##해주는
제기
##치에
맡은
이슬
respons
당시의
##IL
붙여
보자
신의
City
걸려
##평가
enfor
지역의
물러
corn
어째
##시안
MAX
send
메이저
4회
펼치기
계속해서
말한
위해서는
컨텐츠
의미가
와서
쓰레
evening
신인
##권에
##았을
CH
때문인지
2009
아티
corre
공작
##wh
forg
##bed
괴물
##BO
노래를
패치로
의도
interp
오로
##판의
places
홍보
##시간이
많았다
다행히
텔레
##전자
목적
##irty
뛰어나
Res
##ille
클리
stay
##라노
die
실제로는
3차
생각하는
울산
giving
없었던
Mary
SC
##면을
데리고
해체
##군과
피아
글로
2배
##일은
사용하면
순식
##라기
여동생
스프
불꽃
filed
근무
##각을
##판은
Good
건강
##항공
Our
major
위하여
제국의
hast
계급
phys
팀은
전달
자동차
##eas
favor
fal
##우를
곳에서
보너스
거래
대로
그동안
되돌
##ially
##aced
conce
AN
Union
비하면
##악한
OF
##일의
가까이
##히로
unf
Indian
##부대
valid
phil
NC
doll
Sen
체육
##기에서
##류가
경영
빨간
##병을
쓰이는
##터리
싸우는
##스트라
##족의
증명
applied
##홈런
의사
declared
떠올
크루
##운다
회전
해방
크레
의원
2008
##감독
이들이
돌진
폭풍
장애
크리티컬
후에는
테크
##즈는
appointed
취소
압박
61
시야
창작
loss
##시설
##스에게
무난
얼굴을
##별로
화려
##itive
##ET
크리
story
Off
First
많고
자리에
##버리고
후지
##ittee
만든다
text
NPC
루트
consist
아무런
채로
##reedom
credit
##atory
##IG
##츠키
##했다가
못할
민간
late
아무도
보여주었다
통한
West
repe
##iling
함정
sn
130
indic
추진
examp
순식간에
소프트
추가바람
접기
ur
##ously
하나인
##서관
Rail
92
associ
나루
##가락
떡밥
nearly
리버
##장인
관객
##학을
##동차
있긴
##imony
##거운
##색이
custom
난이도가
top
Paris
예술
도움
##체로
military
페이스
이스
장점
치고
books
##가에
목적으로
hours
폐지
immediately
presented
labor
응원
Every
토모
##널티
##미니
estate
apply
##실이
돌아오
기독교
어쨌
Whe
##로로
##티아
direction
스튜
도달
##개발
8강
언니
뒤를
tried
##EM
주인공이
sust
lad
이나
raised
practice
네이버
proof
말이다
공화국
때에는
지금까지
introdu
##면에
행사
##프는
origin
Such
shown
generally
sor
##내며
desp
올리
사건을
attention
통해서
##루를
discuss
##oted
##보단
##iers
요새
##go
##cks
투자
July
South
assert
##브리
선수가
extent
그렇지
본선
복잡
health
정확히
##inite
쓰인다
##omes
최악의
전원
##umed
마크
복수
에스
쏟아
##서울
##OC
딜러
##uary
의식
enemy
강원
몰래
캐릭터의
##제한
certainly
관심을
조용
심각한
흔들
트위터
랭크
방향으로
1999년
충전
##일랜드
##ari
bonds
Sy
방송을
선호
그런지
한계
네덜
두려
##중한
파견
##ops
nar
변호
##erning
mine
##테인
##ha
crim
##aded
##소의
놀라
##ING
보이고
전투에서
파이어
당한
맞이
hair
전체적으로
편성
##바일
러브
부족한
##톨릭
들은
trade
shar
##PG
suppose
##enc
##aff
##ternal
har
##라이트
추락
mem
##ites
가면라이더
Circ
officer
이들의
성인
##오를
paper
##icked
신청
##이었는데
최상
method
##99
수용
##eration
잉글
##ging
유명하다
체포
쓰면
absolute
아닐
Mag
첫번째
review
문을
commerce
##으려
Wor
Great
편이
1대
##부와
mouth
네가
수준으로
알파
테이
##2018년
##역에서
드디어
1998년
##거리는
toward
충청
KT
official
##것을
dog
##카를
평화
##기지
spoke
영원
고전
목숨을
다리
넓은
remain
우리가
생겼다
privile
##였다고
lie
열차
노출
왔다
##파이
수요
##마이
4개
구현
North
부진
견제
아무것도
다니는
remained
##형으로
##레나
140
기회를
##급의
final
이용하여
세워
가사
등판
이쪽은
cry
개통
본격적으로
vict
닥터
방법이
출현
얻는
slow
보도
opened
army
의견이
가드
imposs
grand
고양이
##단지
opportun
자이언
행적
quiet
파이널
연애
##사람
쪽으로
조지
해당하는
상향
출생
등에서
##igation
duties
프리미
무대
오빠
exact
probably
동원
되찾
##인이다
에서는
##MA
independ
##버리
했을
눈이
3위
보이며
virtue
드립
Apr
rose
성능이
##류를
punish
관계를
이후로는
정류
방법을
##mn
들이
##학자
중인
##gar
##목을
##용이
Section
못하게
##ograph
무료
다수
##ils
famil
Vol
지역에
Dep
protection
9회
아케
협력
Oct
##실에
옛날
페이
##렸을
##UN
스마트
nation
##라이언
엄마
##던가
대립
3루
##그래
4년
코드
described
다가
교황
suddenly
맡고
아직도
win
화장
가이
strength
효과는
circuit
##add
inn
##치와
감독이
debt
모습은
크로스
말할
노트
죽는
seven
괜찮은
8회
##기업
불편
##까지만
더빙
afterwards
있어야
Catholic
##브를
##2019년
##들에게는
sell
##PM
수집
비슷하게
Jer
타케
마지막에
A4
##시고
기원전
society
쪽이
##ival
푸른
타워
어깨
옮겨
##nal
깊은
##28
넘는
기어
인근
feeling
##화는
판타지
trad
여러모로
pict
흘러
##대사
##우승
af
이후의
##킨다
##ounded
pleas
비디오
혼자서
대폭
##마스터
제4
##ama
주지
기초
1로
공부
죽여
입단
중학교
constru
drop
##관으로
##atives
학살
##ague
daughter
통신
##저히
그래픽
없애
##당하고
1997년
fixed
이시
##종이
신규
부분을
대상으로
단어
##회사
##형은
시각
영상을
라이더
캐릭터를
2기
##야의
사토
##ilities
장르
콘서
Reg
##bs
##우리
broad
activ
모리
생각을
collect
Af
전투를
레전드
Je
2007
시키
##관리
집단
##cell
##ortion
700
크고
득표
전함
France
추적
outside
사이의
##당을
그에게
Thom
마음에
제법
거기다
Rome
먹을
##티드
2006
alleged
단지
주먹
##니의
##베이
influence
기습
고향
ordered
몸에
Mon
행성
제이
변경되었다
##사업
##BA
기능을
main
elect
destroy
lines
##고의
##ancy
##실점
71
##ighb
##urs
자체를
반격
이뤄
save
BGM
유저들이
argument
연사
글을
이재
##fort
##ears
##64
스폰
provide
##경이
파일럿
weak
어디까지
##인에게
##사랑
##원들이
베트남
노예
breat
언제나
##공의
hath
인상
수록곡
##란색
이득
아머
출판
유희
##해가
##apt
기록을
경기가
오스
마도
##oped
넣어
lower
philos
고생
조심
구출
이중
자신과
레오
나뉘
##공식
세월
어그
north
6회
vill
어드
178
week
##경찰
적어도
유령
goods
beautiful
몸이
대체로
##기본
##hab
반응을
엑스
##부르크
신성
FA
##없다
달아
선물
protect
##inc
메카
##메이크
검색
위기에
Republic
##ype
##관련
##의가
헤드
##2018
드물
##ams
##제작
Emp
습득
holding
##ators
insp
German
매일
pleasure
작용
있었다고
IN
사이가
성능을
순서
여왕
양산
생겼
##장한
##OD
false
안에서
이것을
걸쳐
##스톤
ant
Gree
본인도
대략
등과
시장
##asons
마리오
전라
조금씩
이후에도
최후의
저주
April
SN
호평
##내기
무적
입수
conclud
##해졌
##할수
사진을
참전
##되었지만
프린
##루의
religion
entirely
수영
##itch
운전
constitutional
댄스
##라에
##코는
임시
3D
동작
presence
위치를
사람들의
##대장
플레
##러운
빠진
작동
expect
rele
Your
aut
권총
다섯
김영
qual
귀여
##코스트
##버트
rules
다이아
##lin
##민이
갤럭
camp
##연이
포인
##ufact
##isk
testimony
gri
possess
똑같이
변형
##의로
간의
ago
##마저도
말은
soft
##인들은
특별한
MC
Ver
ign
##2017년
##책을
##head
##26
##urance
지금의
concerning
4강
mach
##oid
##회는
공급
disapp
##hem
체력을
##쟁이
##야구
##동의
진정한
노멀
하나는
standing
이성
불법
사운드
##aled
전직
transfer
harm
##lict
등장했다
##조리
##인인
불가능하다
쿠로
##았으나
simply
입장에서는
##소에
island
내는
##oo
에게
길이
neighb
된다는
스킬이
##35
##ander
스파이
surpr
##ouses
차별
돌아온
이내
alt
위원
똑같은
##력도
마이클
impossible
frequ
스웨
freedom
던져
그와
명이
##율을
bod
5초
##웨어
5년
블록
기여
보물
##더스
##하에
SR
인공
##ata
거라고
fast
파라
##한의
익숙
그것이
##일드
##rant
##대한민
계획을
101
독자
social
조성
intention
곡을
매니
곳이
연방
Mor
박근
##27
커맨
어둠의
불린다
하거나
##링을
##eech
statement
7회
2부
##구치
referred
나나
##터테인
81
##ulf
##oes
예고
가톨릭
사양
수사
살려
##보가
때가
Coll
AI
세계의
비중이
dismiss
정도가
모으
번호
##주면
어쩌
##해보
interests
예선
chance
##een
##받았다
hot
didn
집어
##음악
##레이터
구속
합격
도중에
1996년
관계가
2004
obtained
##냐며
걸린
기반으로
의혹
letters
이거
스카이
##지는데
wide
수송
미츠
##the
experience
이날
105
어지
##eals
##ration
territory
press
distance
instead
공격에
나를
판정
article
pal
lived
무효
consent
곳으로
##시절
##산업
##파의
Dav
형태의
점차
잠수
##실에서
Amendment
대규모
리메이크
학원
##유가
요즘
종점
Supreme
Sept
1995년
substant
Id
장수
Hen
##imin
##짜리
통상
붙은
##elled
장식
트로
현지
##관에
폭주
지니고
그럼에도
하더라도
가깝다
런던
등은
179
Paul
동네
price
##민주당
조절
추격
ancient
##미와
작사
prohib
##ights
타이거
indust
감독의
##lt
국립
보여주고
mid
##모드
16강
고용
##화되어
security
##오리
##세에
예외
##ners
Board
##병이
##님의
##acher
##ager
namu
무언
꺼내
유로
##중인
##슈타
relations
대미지를
근처에
##irgin
낮아
그들은
Therefore
##했었다
hill
##33
막을
cler
##마디
gather
##크라
##당하는
##함에
구해
advant
보낸
Arm
##추가
operation
Yet
##카는
한데
법률
업무
##둥이
Cont
저그
클래스
막기
정확한
편의
##파를
절망
##어리
##itable
firm
##작의
sweet
않았지만
않아도
달린
예비
박정
전까지
##esh
곧바로
orders
0으로
bott
##체에
##이긴
평가가
아버지가
crit
Ah
시기에
##민의
jour
##격으로
서서
##해의
##재를
정확히는
비슷하다
##ze
##alty
##인에
##역에
basis
offered
헤어
##하면서도
##지않
잉글랜드
널리
몰려
포탑
cru
어떠
연상
Bank
exclus
MVP
요괴
##당히
etc
170
히데
대부분이
scar
subsequ
sought
소리가
줄어
했으며
##함으로써
하니
##전대
희귀
태어난
##oured
합쳐
judicial
고백
괴롭
##소리
guard
하야
팬들이
이지
##비트
자가
criminal
동방
박사
극단
##당했다
convey
##데이
DLC
주변에
지속적으로
너무나
모바일
거리가
2002
##anding
suc
burn
##인들의
##orney
넘겨
펼쳐
전형
어떻게든
예측
clearly
Black
대원
있었으며
##테이
##국을
가고
되지만
##ales
Holy
모두가
##조는
##노우
##ford
wanted
적극적으로
기억을
##aces
2의
##under
플레이를
와이
그랬
페이지
##ett
윌리
member
단순한
hearing
moved
제임
당신
블러
Roman
베어
용의
##료를
심한
공개된
reasonable
AK
오랫
없었고
##르지
conclusion
##미네
Feb
Sk
탱커
meant
125
##artment
##iversity
##with
아바
Cent
내의
CC
의뢰
##arden
주말
succeed
IS
simple
이슬람
##마는
principal
3대
nations
일도
파트너
취임
##lies
지나치게
존재하지
##장갑
pec
##주지
끝나고
benefit
##아를
밖으로
서비
진지
않았던
##다니는
specific
##색을
##인간
##van
##oned
shadow
##친구
갈아
##편의
아니었다
현상
디지털
##って
forms
이들을
working
##iles
##에다
south
없으니
캐릭터로
처럼
팬들은
중에는
생활을
tot
distinct
위험한
1기
없으면
신설
##당에
Ill
##cription
##hens
무엇보다
소화
##소개
##일반
기자
##드립
food
마리아
상품
전쟁을
입력
##영이
World
plaintiffs
아쉽
##ishes
##ertain
convers
##198
외계
observed
잡는
규정
##여자
exceed
쉽다
PR
압도적인
doctrine
admitted
목격
승격
안드로이드
##원과
threat
authorized
자신들의
agreed
1994년
##nes
glad
날개
##권은
street
##있고
근육
##hington
Circuit
based
##역의
한자
##버스터
##ege
relation
example
5개
##표를
인수
전력
##적의
fully
##가고
engaged
mass
##쪽의
##담을
##나카
##슬러
##과를
콜라
감시
##교의
Russ
사용하고
저장
생각하고
전면
검사
오사카
##연의
##rent
##실한
meas
초창
##브라
##eless
되었으며
능력은
들을
##iced
##노가
##으론
##hest
observ
대항
##보드
Gl
try
##otion
마법을
proble
communic
높이
Washington
써서
##노선
##린이
프라
feat
safe
홀로
##도르
##co
difference
그로
situation
##리얼
IV
##름을
distingu
aid
반발
extra
외부
아름다운
##로봇
happened
joy
2005
formed
승부
##2016년
yourself
##ental
SM
##인민
##2019
More
##기록
##29
##utive
LI
자매
협박
created
마인
George
사장
국방
##산이
맞다
##light
produced
중계
##법이
redu
##무장
활성
소닉
대만
우리는
##씨가
예능
drawn
창조
나와서
버리고
##동으로
정착
강남
settled
January
지능
James
아리
lives
청년
##TS
강철
##Lv
relief
기능이
부상을
prim
While
portion
느낌이
Sou
##istic
사용자
최강의
prec
서양
##udd
말하면
##호로
happy
##버려
fool
긍정
##하기는
declar
1990년
##공화국
ordinary
##뿐만
발달
스피드
작중에서
쓰기
degree
##오고
##UM
순수
##환이
시켜
안내
인형
말로
되어서
##edy
touch
Dece
manufact
착각
성격이
##usion
essent
디버
FIFA
중에서는
녹음
코어
speaking
mut
drink
##sembly
설정이
버려
gives
저녁
실버
이전의
차라리
Red
expression
ident
##린의
##rael
유행
##함과
##하라고
웹툰
understood
##했습니다
##agraph
host
rich
김태
##uke
##되지만
미스
##안이
튀어나
맞지
##lly
에드
##ether
모여
green
passage
##등이
##워크
##랫폼
전화
##론의
합성
sour
##치며
베스트
2대
##모델
##UR
들어간다
mad
하필
감사
##메가
##현이
##츠의
##퍼스
없는데
이루어진
정지
헌터
박근혜
slight
결성
Under
주기
있기에
전후
공군
##으려고
##드래
preced
어디까지나
잡을
##자마자
외에는
British
적대
product
##vent
manif
쫓아
##일로
아가
한동안
어쨌든
실력을
Art
식민
thirty
대처
##해서는
나타난
많아서
instance
보장
슬롯
구멍
attempt
learned
##했는지
##irth
Acc
외국인
##분의
아빠
커플
##다보니
오랫동안
##미터
싸울
감옥
의존
치명타
reference
흥행
3인
요코
방출
다룬
것이고
총을
##되었을
##iring
가속
끌려
대상이
hy
##ara
Ital
신고
clot
가볍
##estern
##트에서
##번에
관계로
##리우
complain
##당한다
##이게
무덤
##pl
출장
##resp
헤이
작품의
dollars
##bers
후속작
##들과는
분위기
##owd
블로그
니시
boat
##ulated
다루는
대화를
소형
##자고
##바라
enact
covered
##스트가
liter
골든
피격
adopted
화력
opportunity
##당해
잃은
끌고
wrote
하나이다
##set
처벌
liberty
성적을
힘으로
bird
계약을
회의
영업
##elve
##state
일시
향상
편곡
스티
##사령
대사를
kingdom
battle
김정
hat
##ounds
murd
points
##iter
##순위
##unk
감정
대하여
##티나
##세로
trees
코미
마왕
소수
##raw
노부
window
역임
심리
ang
##III
##가면
stone
prosec
소총
간혹
말아
생각이
##방향
##ception
침공
사용하여
knows
##유를
아니냐는
actual
##노스
175
yes
December
출신의
##ux
오늘날
마침내
##연을
사용해
##디가
스톰
기술이
강제로
보라
##색으로
##든가
마이너
풀어
##비전
##소에서
##구려
progress
##석은
보일
regular
로그
remo
##하는게
instit
있다가
##어버린
막장
confer
맞은
성공했다
##영어
##류의
##하려면
Mass
lord
cult
지어
빠르
고등
http
ran
##IM
정복
##ushed
죽음을
##신으로
building
##편에서
##데다
owner
자신도
나름대로
##owing
규칙
세계를
보인
드러나
까다
##het
900
특이한
관할
##타카
##팀이
수련
중국의
Mo
세종
##심으로
mess
주전
했다는
##이라며
named
higher
##만큼은
보이지만
##cent
##과도
않는다는
continue
생각보다
죽음의
##소한
장군
meeting
구체
directly
supposed
밝혀졌다
contained
이끌고
재판
이치
동시
##노의
##ctor
장교
eat
##량으로
##되었다고
마구
##uk
정면
포르투
통제
받아들이
트윈
##race
30분
인간이
tree
##나라의
내놓
태그
Captain
91
UN
##chn
mortg
Jack
proved
High
##가시
테란
##배를
correct
##izing
하얀
anch
군단
똑같
youth
메시
미디어
호텔
blue
아일랜드
둘째
이리
지금도
최다
경비
share
영문
보며
distrib
disch
##타와
DJ
##쿠라
프로듀서
##aken
##줘야
플로
##EX
무기로
2003
##야가
##더욱
prove
##토는
좌우
##그라
##인지는
누적
##사무
hardly
Div
영국의
부품
유대
어두
할아버
##니와
improve
마음이
WW
##통을
##ston
상황이다
비트
이어지는
capt
안티
사용하지
별명
스미
##rey
해병
##금이
##비용
HD
om
race
무작
문학
copy
chair
자는
인하여
융합
##isters
접촉
3학년
pretty
훌륭한
이즈
election
##자치
유형
broken
일제
갤러리
브루
##erson
2층
##hel
silence
서부
Sam
minutes
BL
##ension
##월드
Jose
정치적
것만
일으키
##verse
directed
##come
##이었다고
1st
compet
##apid
supreme
##34
subs
##IP
##양이
##enses
접속
pure
intellig
상호
주었다
깨닫
웨이
caused
이길
##묘한
refused
스웨덴
경기는
제5
몬스터를
다수의
없던
환승
관심이
다들
##isted
도발
하트
##TA
##ena
정도다
##실로
청소년
훗날
##팀의
reach
어른
##IR
##설을
방법은
avail
랭킹
로스
Even
이상으로
초등학교
interpret
바보
4번
##vell
제어
은근히
포스트
legislature
죽인
##aints
이정
새벽
##단체
##leg
의료
은하
이집
탄약
##중앙
##다의
##시키기
##령을
김민
팬덤
##드레
##공사
##시험
##명한
##uel
honour
되었다고
전에는
옷을
피를
일본에서
1992년
달고
##agement
##유닛
성립
##omb
윌리엄
강하게
더더욱
kill
어릴
팬들의
##omin
confirm
##배우
inhab
##로나
강하다
##조차도
##이트를
appearance
세계관
Day
##마에
태어나
그라
##물에
marriage
시즈
lar
speech
환영
노르
발매된
##사거리
자치
accordance
전철
스튜디오
수십
reasons
가능하며
극복
majority
구성되어
##위키
편입
##트맨
##링크
원본
##았다는
##지구
네덜란드
laugh
##pper
##네가
세상을
##orth
멀쩡
세이버
news
박스
writing
##재가
만났
##발매
미카
맞게
##cher
Val
그건
일상
##재로
프로필
반응이
lot
##트릭
##othic
오해
경향이
이주
##36
deem
##ression
heavy
무렵
actually
오전
CF
나아
독특
역을
이글
##계에서
전성
##iety
선생님
상업
올린
크기
usual
멕시코
1993년
이끄
없었
roll
suggest
##환을
##막을
##터미널
##유럽
##된다는
concerned
필리
detail
afford
figure
education
##피를
대개
들어갈
sacrif
디아
##ober
##uls
대충
##림을
denied
##raid
greatest
나눠
물고
published
##안에
##iant
west
##ww
##캐릭터
많은데
##cu
당해
스태
모른
species
절대로
##uliar
rendered
캠페
Lady
전시
##식에
2학년
##아아
Ser
갈라
게임에서
##zz
Ev
saf
##75
##비디오
알렉산
레벨이
##ana
은행
##비에
beat
태평
문재
일찍
Peter
적응
easy
##하고자
taxes
남부
##erous
검찰
매직
같지만
이영
2001
##이동
사랑을
한다면
##았으며
의무
##병원
공격하는
##제국
있어도
importance
event
White
##투를
ren
별다른
바깥
장면을
쓰레기
관심
다를
##ishing
가야
ere
##파가
##교를
##졌으며
있었기
measure
Virgin
names
크라
supra
##통신
##claimed
##oming
##어와
내세
사람들에게
cat
죄다
전해
경우에
prefer
##당은
키리
갔다
OST
##트랙
ep
##cho
4위
찾는
Ep
무릎
권한
경험치
peculiar
쿠키
임대
SD
Prov
straight
멈추
지원을
기병
Pal
development
fing
역사상
Hist
잃고
동부
직원
##전과
##계열
##심한
패션
##버그
PD
방에
알겠지만
##겠지
showed
컬러
전공
죽일
Bill
contemp
##르를
김종
지역을
##form
##SP
카드의
기본적인
pursu
열쇠
prem
지역에서
캐스팅
속하는
thinking
glass
난다
##rible
Alex
##타나
목소리
결코
##현의
services
movement
##ias
자랑한다
이외의
SH
토론
전멸
built
한참
AM
enforce
October
##있어
transport
실력이
##aby
lic
대표적으로
결과를
허나
charged
Their
kt
da
trouble
##였다는
##였기
과거의
##ensation
conscious
EP
##필드
의미로
중의
개방
space
##2015년
개입
AD
##버렸
싸움을
##체육
finding
##rison
프리큐
이끄는
##미나
물을
잡혀
같아
gentleman
정찰
Pat
Appeals
##ny
폴란드
##코와
방사
##사이드
involved
필살기
적혀
아니라고
##석의
##ueen
모모
갤럭시
분위기를
##공원
부른
undert
##실의
Israel
search
사건의
보게
1명
##아는
##TE
##ibly
contrib
Smith
써먹
##천시
메뉴
칭찬
##inner
filled
퀄리티
다음날
자동으로
##일보
##lying
혁명
모양이다
지내
카라
파리
notes
##ticles
##여객
의미한다
##enced
claimed
갈수록
명령을
회수
나가는
카와
Life
활발
page
스코어
##되어서
내장
offer
##익을
1학년
##idden
visit
사라진
시에
우수
wise
리듬
##이기에
어떠한
금속
middle
싶다
빛의
애플
평이
##ville
불가능한
뜻은
우연히
점이다
슈팅
김동
브리
moral
죽고
##상한
utter
##usal
떨어진다
왕의
Come
약간의
밸런스
수수
って
##소로
strugg
##ray
첫차
##기까지
grace
레이드
struck
##rig
갖춘
##oken
이외에도
##망을
##jection
##코드
proceeding
사용되는
changed
것인지
##화한
resol
ourselves
##다란
나쁘지
delight
fle
전진
부서
가라
위치해
헌법
##즈마
##사우
secure
한명
##츠가
한마디
mult
legislation
한국에서
Nove
분위기가
챔피언스
아파트
lips
108
어지간
employed
버프를
favour
##IV
East
되었는데
인터뷰에서
houses
##45
구사
##vere
thoughts
limited
증가한다
properly
progr
네오
죽어
www
##포가
execution
san
KIA
##구리
1991년
피해량
##화와
여신
##당할
넣고
##ris
전형적인
##으러
recognized
fat
##느라
이민
committed
anchor
꿈을
##gel
116
자식
##cing
##역사
위주로
보관
miss
미술
##한글
AS
메타
drew
seeing
잡지
유저가
만나게
##아리
아니라는
불을
##코를
married
##색의
##업이
##주에
코믹스
##토와
November
bishop
가짜
농구
짓을
attemp
어마
그들이
##네임
보안
##공학
치는
그렇다
earn
AL
비례
glo
sick
anx
잡기
##종을
유나이
Mont
##de
crime
serve
의지
폭격
##됩니다
부수
study
늑대
##eror
##사회
믿고
들어온
chap
##곡을
##비로
보지
##국제
forb
2세
##포로
##인도
챌린
아크
gun
##받을
appre
countries
##jo
regarded
repeated
hung
##부장
##소는
existing
##ipped
가문의
모조리
##그리
아닌가
##고속도로
적절한
modern
##국어
##2017
덧붙
separate
##졌다고
과연
expressed
believed
bright
##계로
##teen
##aker
사마
휘두
conflict
owners
상급
##등의
##졌지만
사람들도
##unic
터키
##ounced
연극
Ear
necessity
##탄이
뒤에서
##문은
시절의
admir
Sim
비싸
사후
입을
level
제갈
##란다
모래
시달
##자들에게
그들을
115
방법으로
2번째
일명
가능성도
dress
어택
San
가스
Are
Thomas
Ter
ways
##GA
가을
##사이트
##olly
아버지의
dece
대사가
arch
carri
##역이다
동굴
라이온
찾아가
봐야
serious
##즈와
##rag
##세스
셈이다
승강장
테스트
controvers
##경에
bless
도구
limit
##로와
##46
개정
참석
##마크
드라
##투스
Rich
이상을
행위
원칙
트랜
Att
appropriate
아쉬운
##주민
September
선수들이
자리에서
##산의
마시
병력
준우승
##lected
cand
##venue
grad
Ann
prepared
클레
들면
관중
있는지
iron
Charles
교회
제2차
##37
##NA
결합
보너
유니폼
군주
이명
walked
신이
##장전
Rem
코치
determine
##령이
히로인
제도
채워
aside
후계
##포인트
형식
##ma
path
nav
ball
connection
스마트폰
개시
##렬한
날짜
Ro
심하게
Febru
작가가
##것으로
GS
clock
easily
재사용
##after
연관
카미
leaving
완벽한
그림자
맞서
오직
손으로
##20년
카를
ID
##군으로
177
경력
##ented
신기
reb
##로서는
높고
plant
February
카타
2인
##론은
좋을
##VD
스승
전방
Franc
##졌을
##경의
이루어져
##영의
라운드
##해준다
드는
것이며
스트리
stream
##터테인먼트
캡틴
말하며
이른
##판에서
##AY
데다가
보여주며
목소리가
과정을
##32
Old
야스
##eks
3연
감안하면
east
스타크래프트
시그
##교회
눌러
##ault
군대
##eat
authorities
##하기가
별개로
##aug
지형
##때는
Joseph
차원
Master
빛을
##물은
##향을
decisions
##sy
하락
ED
pos
신앙
##렸던
이제는
Island
엘프
##집을
과거에
sister
##주얼
##공이
##법은
한타
아들이
##시타
무방
보유하고
##것은
할머니
##cycl
제임스
Rec
일방
스틸
##하가
한정으로
있었을
집에서
사용된다
Never
increase
프라이
##iqu
정신을
##roll
어린이
##레인저
위치에
1988년
베네
올리는
Pol
##Hz
##보이
##리케
남녀
##uge
afraid
임무를
goes
벌어진
##봐야
삼국지
인구는
독일의
market
미안
##받는다
저작
전의
##공격력
comfort
##속도가
##랑이
잡은
Henry
좋게
클래식
터치
Ber
정체를
남겨
Des
유사한
##단과
오카
##급으로
해상
##히지
남북
재현
귀찮
그렇지만
선출
##지인
##ming
나타난다
perce
뜻을
##face
스톤
생일
##타운
##rees
chang
사쿠라
##acity
##라엘
##링이
##안의
개막
기분
학생들이
캐릭터는
전체를
곳은
헤비
affairs
자리잡
congress
##ARD
확인할
액티브
##주기
Ir
내지
체계
##약한
된다고
##거야
margin
##하였는데
자세히
pot
priest
장악
Int
Es
proced
어려워
##버전
##문학
aver
채택
SKT
태어났다
연락
histor
경기에
플레이오프
알바
##GE
Ste
##cked
출입
아마도
##커가
##하라는
floor
버린다
거듭
왕자
##ico
유닛을
rise
메르
버렸다
affirmed
내리
핸드
병력을
##빌리티
나이가
소식을
1989년
효과로
##기나
Mich
Mess
##이었으며
매년
간부
코스트
agent
##성능
exception
천재
##으로서의
죽는다
paragraph
infer
Son
구원
##01
문자
##에겐
bal
1부
이전에는
포스
출마
##러의
얼굴이
police
때에
##그러
수준이다
##닌다
##워치
무시하고
finally
신문
않도록
지식
캐논
모르고
포항
withd
##lesh
외의
주인공의
강요
둘은
EN
숨겨진
처형
가격이
만들기
##osite
ignor
mm
##사실
군인
docu
Book
Spirit
##증이
Er
##aped
honor
diss
##네요
##니는
내보
주간
자극
찾기
색깔
fit
##raft
Port
##츠를
아쿠
##서로
106
depend
DE
드림
스턴
거리를
##esty
이용해서
인원
환상
2000년대
1층
Mus
arrange
몰라도
김재
세계에서
##용을
몰락
알리
개혁
전부터
그것은
##보로
네임
##국에
##였을
##차량
고교
request
##equ
결과적으로
매치
탈퇴
bodies
충격을
Grand
##건을
언급한
##졌는데
beauty
##양함
간신
##비와
ideas
깔끔
이식
명확
Mart
잠재
오스트리아
##득점
caught
기울
어째서
burd
##률을
arrived
accepted
단편
##ables
비싼
2로
타락
죽이고
##38
getting
것일
##벌레
magn
시작으로
##구와
Inter
##검을
##work
##키아
빠져나
들려
등장하지
union
볼넷
힘들어
##pped
##석에
##욕을
합체
마력
3000
revers
공식적으로
sitting
##마와
forces
레이스
##질로
advantage
공격할
##EFA
나오기
##니를
##파로
JR
들어갔
##ellow
육성
##전설
bor
Po
남긴
##종합
Dan
Adm
KO
Lib
rapid
특집
##카오
앉아
takes
Order
##중이다
hop
restrict
##ye
돈이
터뜨
##역은
##isdom
중독
learn
symp
##크와
thick
##사기
##MP
depos
약점
그러자
remains
유치
당하는
arg
눈물을
회원
expected
difficulty
##레일
stopped
##게이
equally
명을
##eenth
신분
##겠습니다
화학
추구
##what
##주자
작품을
##해지고
##루는
fraud
##작을
단단
화를
말하자면
##호와
유효
Ma
다음에
##클럽
공화
passing
ded
좋고
게임에
##standing
사막
생략
챔피언십
Tom
사카
욕을
quant
후술
안된다
시너
##iance
상상
##자도
포르투갈
트라이
fifty
영구적으로
시스템을
purchase
actions
미스터
throughout
챕터
남아있
도끼
##러를
##가며
err
작가의
Dem
##명에
certific
##bo
##다나
경고
##되었다는
##TER
Flor
##초간
##돌이
각본
128
챙겨
현재까지
무관
감독은
smile
steps
instrument
받으며
##iana
Mil
찍어
식의
spring
obtain
suffer
##커스
##iation
##했다면
말하고
wholly
founded
머물
condem
##라라
holy
started
lif
ru
날아가
업그레이
집을
proposed
발언을
아이를
인물이
habit
싸워
자폭
이것도
##respond
philosoph
spread
기용
맞으면
말자
소드
crowd
schools
therein
적합
비상
있었다는
##직업
##조사
becomes
##맨의
202
##조로
##oked
##생을
removed
##나서
##노트
하나도
수류
##acle
진보
weight
머리가
이은
##비드
메리
오지
고작
##어마
Encycl
아이스
failed
##iry
community
##생의
이번에는
시즌을
고스트
회장
equity
단점이
ener
##서에
전쟁이
사냥꾼
Med
##erate
뜬금
김대
##zen
공개되었다
##line
커리어
##사고
1장
아티스트
##타자
목표로
##order
tro
위장
Wind
마술
##amber
rock
추억
served
##들인
휴대
##사관
discovered
##커의
공공
루시
##iny
카오스
확대
나중
##rave
poet
##치면
##가리
세르
ii
적당히
spr
몽골
##들만
멜로
계기로
##하마
플레이어의
선전
Robert
##바의
홈런을
##버릴
자체의
호주
LC
바꾼
증언
밝혀진
탄창
뜻하는
당시에
##테르
플랫폼
앞두고
##도에서
북부
성남
belief
##ago
fresh
music
##ria
spoken
저런
게이트
##차는
narrow
토끼
likely
노리
##리스의
리가
느린
나도
CPU
상자
마드리
##essor
##직한
걸고
아이콘
##보병
공성
##rary
안나
떨어뜨
퀘스트를
##페이스
마다
메달
1500
가시
마그
##상과
effort
카메라
호위
104
성능은
##umption
##unction
사전
예로
관람
요정
##aming
보석
최신
discip
배우는
mission
이닝
print
sen
나아가
##39
##먹고
Again
##나이트
왕이
즉위
않았을
labour
mat
한쪽
previous
##하겠다고
이용하는
warm
빨라
shows
사용이
크리스탈
너희
##탄의
함선
Land
##이든
##오와
extreme
신화
##훈련
ens
일람
오래된
고위
국가대표팀
Lat
hors
중립
gar
블라
블레이
만날
##망이
BR
Leg
드리
ordin
##iforn
##키와
somewhat
올랐다
##셔널
Afric
slowly
##하하
Supp
승객
식물
이펙
물려
미군
보존
사우
대표팀
코우
##장비
타자
##국은
sword
brief
통산
피아노
발생한
Kn
##지지만
##asc
기록한
레어도
##각이
##스테이지
Department
restr
waters
장전
##otten
클랜
거기서
intellect
올라온
현역
보다는
없다면
이미지가
perp
promise
찍은
카드는
##지기도
조건을
legislative
이어서
코코
트럼
도주
##ades
train
Spe
excell
group
아테
그러다가
SE
나오며
물론이고
##바나
민주당
Ac
permitted
아메리카
highest
정부의
스프링
109
위대한
1군
##방에서
수업
##커를
##진으로
particularly
piece
이상이
box
Tex
##chie
Del
running
북쪽
되기도
Govern
Opinion
성별
hall
느낀
국왕
##ica
closed
##ading
이며
##수사
1루
spiritual
느낄
아즈
##닉스
넥센
##되게
##66
imposed
후손
##종은
덤으로
theory
잘못된
일이다
##디움
개량
##asing
##겠어
매니저
범위가
살펴
초반에는
flesh
총알
아르헨
##세한
##양을
star
움직이는
essential
저렴
카트
네트
##박스
Star
regulations
무지
부문
##rated
understanding
##vert
bread
absence
1세
forget
##몬드
흡혈
punishment
치유
숙련
직전에
Pri
고구려
ow
1승
커다란
##으로만
들여
##이면서
싫어하는
##우주
남쪽
당일
의미를
귀환
새끼
155
glory
##bert
글로벌
합니다
##플렉
inhabit
##블린
정수
공격력을
부상으로
##로워
##ENT
예정이다
mix
김현
Bishop
급격
ones
administration
##나고
이겨
##cknow
cloud
닌자
moon
##끄러
사망한
미국에서
107
Prot
조별
##ilty
correspond
gas
ON
obv
Californ
scarce
화가
Pre
##하더라도
escape
##gypt
이자
165
인증
제정
##더라
리얼
##ashion
##icted
pull
유전
Two
제가
해주는
##터는
손가락
형사
아랍
univers
anal
부딪
produce
increased
뮤직비디오
아이언
전주
무척
##대상
그러한
또다시
##후의
silver
점수를
##ensive
근본
간신히
##기기
##바닥
Inst
asp
동의
양쪽
간접
103
가볍게
우리나라
고문
sharp
책을
##출신
총기
##우기
##있게
income
Any
음성
1987년
그랜드
##우며
하차
##두는
economic
4대
##다리
제작한
미치
거짓말
##포의
##자책
판정이
녹색
doctor
토벌
##프와
##44
##들과의
##liament
##usted
지시
divine
damages
용도로
히카
imper
비율
address
Ass
주변의
그러니까
레이더
패턴이
패스
##페이
코멘
Indians
approved
Sl
lack
언더
##연도
에너지를
##onstr
dwell
##tt
Str
세운
stre
##ospel
곤란
비판을
grave
write
2명
정도였다
respondent
##우와
본다
pred
어마어마
망가
찾을
Pac
##ological
해안
위반
Egypt
passion
LV
구글
##erable
곳을
게임은
##후반
티어
의문
##라이브
마코
포트
결과는
##코어
화려한
##vation
Committee
라이프
수출
acknow
efforts
##통이
Bec
소위
##선과
기록하며
검을
##년월
##들보다
##졌던
초록
투구
신경쓰
Railroad
천사
uns
나면
1만
민첩
usually
##축구
wait
공룡
articles
##산시
연료
##요시
##족이
시절에
상술
소지
Fin
성공한다
treaty
##네의
killed
곳곳
실망
##자면
##네스
길드
니코
##발이
168
##ogether
merch
1980년
동성
darkness
아나운
존재를
4차
Bur
##과정
버린
물질
California
크리스마스
관측
##체인
##약이
x11
효율이
##번이
저질
1999
넣는
limits
선수로
격추
subjects
Aust
##아시아
##자이다
후배
시간에
멤버들이
##누리
##된다고
fourth
Tur
전문가
##enance
reject
작품이
##야만
##MS
##신교
##박을
##ero
##ada
나폴
부인
##백을
##설명
horses
dinner
재정
wealth
##블로
기숙
포함되어
pack
survey
##내지
드레
##astern
##VA
citizen
##kn
가치가
아틀
Wil
매력
집행
해피
##하를
##inent
coast
가끔씩
죽이는
멘탈
피해가
##encies
부각
1라운드
하나씩
##포르
David
자전
##크스
당연한
떠오
##경제
##chan
언젠
후반에
유닛이
가만
##패로
이스라엘
heat
심판
농담
5000
당하고
언덕
station
loved
resolution
opposite
프리큐어
의견을
##실은
있음을
##되던
##ainted
출연한
##CE
침략
다스
신라
완벽하게
Sal
늘어난
취급을
부분에
rank
문재인
corner
##상황
속도를
##100
거울
##결을
레알
불교
너의
지팡
지휘관
폐쇄
기록이
동쪽
페널티
consequence
##가미
However
반사
나오면
미쿠
초기에는
Wall
기점
주제에
##생이
시드
이혼
total
##하자마자
프랑스의
##프리카
##번의
내고
실드
reve
sovere
기관총
무기가
please
##기동
구하기
1분
CJ
시노
##antic
스페이스
추종
기믹
surr
##아키
##change
집으로
올렸다
superior
특성을
브로
##카이도
##범위
체인
강의
불렀다
지뢰
depri
비해서
##이었기
##조합
##싱턴
silent
Def
금방
뮤지컬
데몬
1998
##까진
compensation
K리그
hereby
팬들
game
void
종목
한번에
Bel
UP
gall
주둔
garden
낫다
서번
타겟
##거를
intern
Did
##지나
##션을
공격한다
무기는
WWE
##아와
건조
##시에는
Prop
##AK
descend
명칭은
##슬링
##제와
여담이지만
문명
nin
진짜로
##씨는
objection
감정을
못했고
350
열어
인물로
##겠다며
편이라
면에서
독특한
포위
넣은
##abor
Tre
이미지를
quickly
135
grew
##2014년
##주며
시대의
interv
타쿠
관찰
##った
문서를
아트
동일하다
##디의
##레어
##저스
fashion
area
##야수
Imp
아니며
다음으로
보여줬다
##모의
coup
방송에서
##작이
##から
rob
##theless
원인
##osen
아미
후에도
난입
부를
승점
##리포
clause
today
혹시
지불
##예술
Penn
##시피
자격
recomm
Sub
##성우
아파
##77
##디를
Dec
우수한
기뻐
##능력을
##ancing
유저들은
쉽지
sav
sentence
determination
칼날
블레이드
당했다
County
independent
침입
올스타
뜻이다
사람에게
violation
##clam
의상
행운
주사
##bor
##맨이
스플
발행
encour
waiting
Mer
Serv
익스
바이오
멋진
위력
가벼
냄새
##소설
1986년
사랑하는
모를
##king
대성
##학적
대회에서
ende
##인한
##협회
방지
얻게
3명
눈물
합의
van
wine
organization
Only
받아들여
science
##가서
##진과
동양
##iform
오류
##IX
Mill
##공개
콜라보
심장
처음에
미라
Cons
##리지만
##ourse
공허
##인들을
council
fulf
wisdom
di
145
얻고
답변
guilty
대미지가
확실한
DVD
곡이
잔뜩
##났고
최소한
몰랐
##burg
휘말
마라
##왔던
bottom
carrying
키워
데드
대지
causes
##영웅
manifest
정황
2연
전신
상관없이
늦게
sake
평타
forty
존재가
일치
체크
전투에
tender
119
##키퍼
연금
생기는
noble
##렇게
사건으로
##31
제6
distin
176
수준이
숨어
일으켜
친구가
어빌리티
제출
것인데
시작하는
##속에
##리는데
않는다고
broke
초중
틀어
LA
금융
차가
종류의
재밌
obligation
프레임
좁은
두려워
연속으로
##전기
정차
twelve
티켓
Rel
breath
보완
골을
Ohio
이수
목을
cab
##동은
아시안
##관광
spir
159
##네이
자연스럽게
Upon
##학원
##발의
Const
되었을
사용하기
라인업
니콜
##에서부터
blind
알아서
joint
유나이티드
둘의
오마
##드래곤
##거리를
삽입
##편에
국적
브레이크
##rom
드럼
birth
##aches
심지어는
##스트의
elected
유력
102
##듯한
##티스
생긴다
토너
##lend
기지
kiss
서쪽
따온
##렸다고
발라
얻었다
##국에서
블러드
Mac
##습을
unp
마키
Code
advance
KBO
들어가면
##가스
Mal
Chief
##해질
spot
proportion
현장
##차례
음악을
간주
단축
나선
seat
세븐
사자
호칭
content
영광
고수
장비를
무서운
shut
##팅을
빌드
원인이
RE
기운
##umber
##aste
##고에
divided
발렌
당신의
생각해보면
공격으로
##다를
nine
aband
##urb
죽지
아래에
net
##gen
##발로
##버를
controversy
영상이
낮다
amended
사령관
가치
1의
##우지
성공한
영토
일종
vote
##rd
유카
##조에
새롭게
그레
횟수
플레이어를
창원
전투가
곡명
타마
##주었다
발생하는
바퀴
failure
사이드
일원
콘서트
##으니까
사살
나츠
transl
showing
Fur
돌입
vot
설정을
정도이다
빅토
먹은
선두
통치
##년월일
한국인
물건을
##감한
companies
대통령이
그러다
village
교사
lies
School
히나
rates
유독
Because
속한다
인민
##using
necessarily
곡이다
warrant
수술
자본
murder
##DD
아니라면
##받지
UEFA
부모님
한국에서는
results
leaves
적어
##는가
##host
##rim
1턴
##희가
Intern
mortgage
rad
soldiers
158
언급이
lying
acquired
##법에
na
##건설
journey
sustained
##lier
서식
예언
considerable
asc
묘사가
bell
##cket
##고지
##CC
인물이다
attend
나타나는
이듬
prescribed
로얄
오라
마비
##vant
거다
피할
끔찍
차를
animals
##irs
reading
전체적인
밝히
뛰어넘
##자동차
사라진다
입장을
liable
##ios
shot
세상
스킬은
아저
##단에서
점도
활성화
laug
##cer
시스템이
##AND
Lo
Virginia
Time
페이즈
이유를
##출연
happiness
##필더
천안
##ky
매달
##번을
시내버스
가지는
##졌다는
trying
##피해
Span
steam
끝날
디젤
Arab
여객
##스토리
스팀
##전문
아카데미
##르며
어딘
##린을
걸맞
투어
##ping
intent
requires
Ref
Second
##47
죽기
들었다
quarter
project
taught
저택
##추어
tong
examination
수백
인디
사라졌다
집착
##웠던
##astic
##aze
부러
플레이어는
전반적으로
##아야
후보로
브레
##리라
분명히
LIVE
pra
대부분은
프란
##정과
##씨의
루이
대대
##lection
endeav
일어나는
##편이
장면은
Accord
laughed
##like
발생한다
가지게
region
rid
Hel
measures
##ked
가려
번개
valu
##rel
정부가
이끌어
불렀
국가의
양성
시라
##기능
구성된
particip
Work
경남
가르쳐
##되거나
substance
##시하는
##든다
Lu
##드러
##와도
곳이다
##CG
beside
먹어
mir
sides
##시스트
##경우
항복
##CH
servant
instant
##기어
타는
##판으로
공격은
##일리
numerous
subsequent
사이버
grounds
느낌을
##인데다
발매되었다
대리
population
유통
evid
신비
events
Green
related
##고한
##과에
117
papers
3번째
이종
조연
##급이
##저럭
업데이트로
주인공은
connected
##마치
excess
자막
aud
입장에서
적다
##uries
귀여운
관련이
떠난
화성
##시즈
NE
Bet
Team
##rid
height
폭력
000원
sky
트레이드
reply
지역은
양의
유저들의
정식으로
질문
전설의
중첩
Ca
##켰다
boys
##생명
##럭저럭
빼고
##allen
maintain
##마츠
production
호흡
240
이슈
incl
완결
minute
유이
Since
개설
##ims
최근에는
##위해
privilege
트럭
bow
liability
에그
1985년
대단한
칼을
##ols
##소총
##결승
진압
소재로
요소가
미드필더
면이
결말
perfectly
dread
ven
침묵
수를
##하진
버스터
##rose
실종
아케이드
유격
##니시
##GB
사회적
compar
volunt
Office
##나기
satisfied
원자
##학의
memory
##간이
별도의
부임
Max
깨달
env
시절에는
Brown
안녕
어필
철저
준수한
##열을
엑스트라
다리를
Its
이듬해
데에
결과가
Super
complaint
##경은
히어로즈
aftern
드라이브
트리플
##ona
주식
비교하면
360
##애니
시의
해골
##영을
숫자
어뢰
##란의
장치
##바야
무라
보여줬
Prince
아츠
lat
맛이
servants
##림이
데다
평을
그럭저럭
fault
배트맨
##계획
불펜
avoid
##known
worship
확실하게
##카라
##러니
##급을
강원도
contracts
##사단
band
명중률
220
##머스
디지몬
얻기
fol
공기
##arant
사도
##해보면
safety
의해서
유발
도둑
조조
##주일
상처를
스텔
##주와
popular
##인들
##각성
메모리
judges
##로만
당신이
대인
##주교
##스피
시절부터
Greek
잇는
signific
Sum
People
속도로
파르
하이퍼
##진에
width
영화를
sex
와일드
##면이
가상
세대
클라
included
walls
한양
##동물
앨리스
후기
##arian
주장하는
techn
등장하며
리뷰
exclaimed
##ores
머리에
##슨이
tears
나고
지나가
듣는
높게
막내
occurred
##55
additional
아래의
##치면서
Sat
인간을
많지만
president
provides
##히트
실수로
##린은
운영하는
##ids
##urally
서구
During
시체
##cle
##복이
곡은
배포
아기
일로
##iture
기사가
entry
besides
##면에서
Those
파생
##형태
경우엔
팬텀
마케
위기
##했기에
confidence
악역
##무가
##중에서
objects
job
##나가는
needs
경상북도
physical
##감도
statutes
##aked
##uting
실수
##스레
시작된
쪽은
fee
사제
##upon
기아
##동과
##조직
이하의
오디션
turning
속의
적중
탐험
conqu
hence
돌아와
talking
라틴
체결
노려
정통
cities
반해
##정상
갑작
conversation
##로이드
##너의
vessels
전체가
delay
Ben
일일
##field
최우
샌드
속으로
의견도
##투수
##바가
##야는
루카
##드라마
##olid
appellant
##년에
sail
나은
song
##곡으로
단행
desert
suggested
우리의
##영은
어두운
팀에
Gothic
불이
thereby
marked
118
##신체
wicked
##42
##네시아
화물
만남
10분
애매한
작업을
112
Sil
각각의
삶을
생명력
벌레
enemies
include
태평양
innoc
교전
요약
트롤
treated
너는
spent
드롭
willing
##페르
Whether
picture
1995
Out
European
##행이
발을
treas
하나만
unw
어머니가
코리아
##인데도
Em
individuals
라이플
답이
선고
##릭스
##중간
unl
정확하게
Che
어드벤
vast
##iel
상대는
shore
incor
긴급
근거리
##오버
드래프트
갖추고
과도
묻자
##로소
pointed
interstate
신도
누르면
fruit
전체의
1997
쓰여
코난
##clamation
##타니
##곡이
2라운드
커녕
OP
보냈
River
##더러
두들
##것이다
wished
출연했다
Ke
빌려
군대를
##국민
원딜
explained
1984년
SU
##eath
동화
상대에게
밑에
##신과
건지
##타수
travel
공립
스즈
전북
대거
vac
일으킨
차지했다
병원
tempor
afternoon
contempl
보내는
##ipe
terror
건드
oh
##침을
또다른
##는지는
상태를
##구에서
캐리
무시무
많지
##슨의
RPG
rat
conven
바닥에
그랑
##로써
나치
선제
##경기에서
날카
영향으로
제외하고는
한나라
후퇴
요구하는
##름이
퍼포
부분에서
MF
제7
나라의
##달라는
형식으로
강등
시계
너프
타율
GT
미네
콜로
##음에
verd
터미널
##바르
##테일
bearing
정부는
부근
합병
지은
술을
없으나
##건이
1996
변환
부스터
더군
출시된
지나지
맡아
##족을
열매
inher
frequently
동남
##더의
summer
나간
##물관
##한이
vain
##체력
##십시오
생각할
adjud
사용했다
##머가
차기
##ems
obst
bitter
밝힌
##ube
사유
Inc
##っと
들어올
##섰다
Nothing
어이
2군
법정
엘리트
캐스터
피에
탱크
##센트
reform
applicable
오랜만에
페이스북
forced
##lebr
##대원
동기
에반
넘어서
시간은
신호
실점
Objection
에르
Trans
일행이
##에이
Gold
차트
아버지는
사라져
##inate
SNS
international
##abb
측정
##odd
용사
골키퍼
시대에
가동
언데
경험이
이벤트가
커피
방식을
수익
ships
##러는
##언이
상의
##cribe
##포트
##령의
##주인공
구할
소요
animal
surface
Kore
마법소녀
##앨범
용서
지칭
temper
배경으로
exhib
##대구
permit
왕국의
무사히
전까지는
##브가
토큰
##리에게
##retion
특기
싶다면
타격을
track
간단히
##대기
##있는데
injury
5위
공용
Frank
##온의
remedy
자녀
용인
전세계
윈도우
##엔딩
##년도
정비
##너가
마약
Heaven
걸리는
야생
dry
Power
카츠
##공업
장탄
entr
성을
assess
##ouri
neck
shout
##rap
정예
dissent
완전한
도서관
##jud
슬라이
leading
Ye
시상
중요하다
##클래
Germany
156
liqu
상점
##속이
팀원
crown
fill
아끼
##apan
ring
##본부
넣을
##국으로
possessed
버그가
중형
공사
키스
##파크
##리거나
1시간
Texas
inhabitants
심심
숨겨
problem
키타
##디는
사야
prayer
약탈
##전한
있듯이
native
log
반박
태도를
extended
사례가
모니
이긴
시로
위기를
임팩
노벨
가격은
위력을
girls
된다면
감지
10개
##숙한
이벤트를
미즈
최하
키가
현상이
practical
손님
consp
CS
건국
전역
상기
##wood
CG
strict
국민의
TR
악몽
occupied
deemed
기상
##환의
3점
##41
바뀐다
오키
이용할
##방으로
beneath
피가
##계약
코르
사형
더군다나
한반
했었다
##용의
동영상
##손으로
Mex
##활동
joined
즉사
##미에
##중국
##기준
department
Thou
mountain
dise
captain
##하길
GO
세인트
Blo
적지
##이거나
기재
올라오
워싱턴
illust
3의
##함은
★★★
##루와
Hall
##병의
진심으로
모습도
##소드
시카
dign
##오로
소방
behalf
##fores
greatly
유인
##있으며
standard
거나
##저의
##열이
보충
honest
Have
창설
##ective
##왕을
##례를
서포터
기회
introduced
시리즈에
Party
여유
bankrupt
##ACK
뱀파이어
평양
##AA
마법의
sand
땅을
무력화
gods
sons
FN
상륙
수도권
##버스터미널
##체스터
철거
costs
자이언츠
##집이
엔젤
##inity
닮은
무인
영역
올릴
##고도
exactly
계통
current
heads
대선
University
크기가
##고리
무산
일격
않았다고
##타점
몬스터가
뒤집어
자라
##메라
##oles
모양의
represented
쌍둥이
플레이가
작품은
대치
##미로
views
노리고
167
##greg
편이지만
막차
기회가
작곡가
배를
Missouri
knowing
compre
사립
##희의
과목
##rian
Cat
왜냐
팬들에게
##asts
##rs
##ida
111
시원
특징이다
발굴
##함으로
##efully
최종보스
Look
마블
##ucky
진실을
vers
프리미엄
잠입
##ette
##포스
빼면
얘기를
서서히
허락
삼각
Jews
##난이도
Before
amb
브라운
유희왕
Arch
특별히
구슬
썼다
포격
Fate
장점이
파는
##키지
연도
죽었다
##utory
금액
prevail
##살을
Pers
장면에서
없으므로
말라고
##조선
##서야
치명적인
음식을
##틀랜드
stage
delic
##eous
##정도로
업로드
##법원
##ICE
1초
증폭
올랐
##품이
source
##sey
##UT
기가
노리는
용어
간단한
##슬라
governor
##인치
##브로
소속의
perman
모노
왠지
##정치
##항목
파크
achie
특수한
유의
##열차
상대방
Indeed
스킬로
가해
tone
개체
##orial
수능
함대
##inions
##어버리는
비하
##No
해준다
Like
##달러
개발한
Night
책임을
김경
지키는
brown
부르며
축제
퍼포먼
1억
speed
Mark
##eter
##들로부터
unable
인종
maid
##umn
매번
Roy
frame
##년간
##yal
##스런
배출
막는
##위권
돌아다니
Hence
affected
##갔고
거지
형태를
배정
##후에
신입
얻는다
altogether
공장
김상
terrible
fem
sad
음원
##브의
그러던
##투표
인피
##즈니
##49
evident
다녔
Assembly
amendment
은신
취향
유리한
목소리를
길어
##더가
##aph
Apost
##umph
노선이
seized
세부
프렌
배차
##절한
압도적으로
210
중세
init
BS
수치가
##타마
거미
##국적
스토리가
새누리
##estic
apart
##우라
무의
exclud
차이는
Rock
다녀
##노는
##rem
familiar
자랑하는
지속시간
pa
웬만한
중복
##온이
##렐라
type
캠페인
Bell
해킹
##esse
yield
괜히
기점으로
땅에
Queen
토르
##베이터
장관
5번
Other
Men
게스트
##yer
TH
description
clean
곡의
##되어있다
worthy
무승
부가
대상을
##민은
더이상
출격
employees
##년이
언급된
##시청
##강화
개별
engine
##의의
celebr
타츠
##erem
effective
공지
닌텐
개신교
코토
##연한
##타이어
##utation
향한
decide
##마일
##줘서
##rial
놓은
클릭
advanced
defense
끝으로
hearts
DF
일에
supply
부착
토마
버튼을
그렇고
##소나
##믹스
스토리를
Park
스크린
square
##차별
India
validity
Mem
제작된
Senate
lose
생애
assistance
##렸는데
suffered
##야를
재활
대우
김진
mode
버리는
플래그
받기
##데다가
몬스터의
##이었다는
출력
##시다
옹호
고마
전승
호소
##ipt
비웃
##회복
뜻한다
##배가
resist
ge
##니코
absolutely
##건의
느끼고
측에서
풀려
당사
##터널
##ese
와중
들어갔다
자신들이
요원
demonstr
불만을
오타
##ota
선수를
여론
uncle
##란이
끊어
##rog
##현은
후반부
1사
사건에
127
안양
##오스
pros
경상남도
써야
한국에
조건이
같다고
사태가
##oms
별의
한두
시청자
##onel
distinction
영화의
듯이
##나간
청와
좋아한다
끊임
수면
쏘는
##프라
3개의
conviction
세계에
courage
나머지는
성격을
억지로
카드로
Light
구별
##진화
##배치
fallen
series
무역
가만히
Sun
##해주고
##있었다
##카미
둘을
외전
Ven
##인듯
이젠
##작은
갈등
라그
면역
기술로
일어났
##베리
##orted
남기고
초창기
고객
○○
fright
백성
제독
assumed
Madame
Pacific
시위
attached
전투기
##olf
교과
그날
1982년
20대
##보이는
BE
역사를
##파워
##간을
##asm
1편
하였고
##군에게
##세서
##amed
##도리
##저가
장거리
regulation
에릭
##ael
mel
가죽
##르타
공연을
피터
능력으로
로빈
필리핀
##행정
useful
vent
##가족
##설이
##합이
138
느려
시작되었다
바위
DC
방어력이
종이
혼돈
TO
대다수
##능력이
interested
##B48
apparently
##oul
사용된
##awn
##마나
##감에
일부를
##디스
대단히
##째로
여학생
사고를
##ylvan
rain
되었지만
나오기도
##씨를
keeping
채팅
혐오
인구가
영원히
Japan
##XX
Chic
1994
가디언
Americans
##폭탄
##밀리
##계는
1990년대
보이는데
Win
바가
##병으로
solemn
##했듯이
복잡한
명백
##산에
여지가
건물을
##토스
베이징
웨스트
##길을
돌연
WH
텍스트
하향
activities
##eem
##디에
친애
Cle
블래
직접적으로
##뮤직
남겼다
카구
propos
창단
##43
distinguished
여기는
변화가
캔슬
##2016
남아있는
##비치
끝난다
충성
팔을
scene
당신은
들어오는
##케이
FFF
##unch
executed
##emb
파멸
질문에
파란색
##SS
streets
thence
##inois
돌아가는
위력이
##상으로는
##처리
저는
##렉션
pet
특히나
attorney
sacred
로버트
제한이
minds
주포
burden
포수
wel
스킬의
##재판
전작의
thor
크림
##aine
kg
디스크
##워즈
진학
Sav
친한
eager
KR
아이러니
148
verdict
취득
나무위키
이룬
재개
##소와
1983년
guarant
worse
##로에
risk
주인공을
##미사
거친
유닛의
보면서
있겠지만
테라
prophe
이웃
잘라
가졌다
accident
시청률
치면
weap
GB
모스크
기존에
##2013년
166
시즌에
ears
에는
##して
문제점
##주의자
discretion
아래로
평생
세력이
인스타
##197
반지
바꿀
히토
##ashed
pp
uniform
복구
troops
주장을
스파이더
사귀
나왔던
참여한
처참
레지
열리는
프레이
##레가
연기를
스키
아버지를
available
금메달
이토
적들을
destroyed
조약
##The
일행을
afores
drawing
IT
그러면
hang
콘텐츠
결정적인
snow
며칠
##ique
줄여
Illinois
International
에도
좋다고
##왔고
보정
